<pad>	0
<unk>	0
<s>	0
</s>	0
刘备	-0
▁张	-1
▁张飞	-2
▁刘备	-3
关羽	-4
▁关羽	-5
督邮	-6
▁督邮	-7
..	-8
大哥	-9
▁店	-10
伙计	-11
▁店伙计	-12
大人	-13
二位	-14
百姓	-15
县尉	-16
命啊	-17
天下	-18
刘大人	-19
三弟	-20
不敢	-21
不能	-22
不是	-23
什么	-24
你是	-25
就是	-26
黄巾	-27
关某	-28
朝廷	-29
英雄	-30
万岁	-31
今日	-32
你说	-33
壮士	-34
大事	-35
如此	-36
来了	-37
▁百姓	-38
饶命啊	-39
....	-40
▁小	-41
不可	-42
义军	-43
县吏	-44
同年	-45
同日	-46
同月	-47
张爷	-48
挪开	-49
无犯	-50
磨盘	-51
秋毫	-52
豆粉	-53
▁小吏	-54
不能走	-55
同年同月	-56
秋毫无犯	-57
同年同月同日	-58
:(	-59
▁众	-60
▁旁	-61
丈夫	-62
东家	-63
为官	-64
之后	-65
买肉	-66
了他	-67
佩服	-68
刘兄	-69
宗亲	-70
宦官	-71
得此	-72
怎么	-73
我们	-74
挪呀	-75
无有	-76
是啊	-77
汉室	-78
没有	-79
玄德	-80
这这	-81
▁义军	-82
▁张角	-83
▁旁白	-84
刘县尉	-85
救命啊	-86
王县吏	-87
不能走啊	-88
就是豆粉	-89
汉室宗亲	-90
▁何	-91
▁老	-92
▁顾	-93
一个	-94
一样	-95
三人	-96
上差	-97
不求	-98
不知	-99
与民	-100
中山	-101
之时	-102
之躯	-103
也不	-104
何处	-105
你这	-106
俺也	-107
出来	-108
分明	-109
劣迹	-110
告诉	-111
哎呀	-112
四方	-113
在下	-114
在那	-115
大小	-116
大爷	-117
如何	-118
孝景	-119
守备	-120
屠夫	-121
怎样	-122
打呀	-123
拿钱	-124
有一	-125
有何	-126
有钱	-127
桑村	-128
灵帝	-129
猪肉	-130
玄孙	-131
绿豆	-132
群雄	-133
董卓	-134
豪强	-135
贿赂	-136
这样	-137
靖王	-138
饶命	-139
▁众人	-140
▁何进	-141
▁老者	-142
▁顾客	-143
你是来	-144
告诉你	-145
在何处	-146
在那儿	-147
大丈夫	-148
天下大	-149
孝景帝	-150
我大哥	-151
楼桑村	-152
玄德公	-153
▁王县吏	-154
中山靖王	-155
二位壮士	-156
俺也一样	-157
你不能走啊	-158
......	-159
与民秋毫无犯	-160
同年同月同日生	-161
不求同年同月同日生	-162
▁围	-163
▁第	-164
一于	-165
一刀	-166
三位	-167
三十	-168
三天	-169
上面	-170
不得	-171
不必	-172
不成	-173
东汉	-174
为何	-175
为国	-176
举荐	-177
久必	-178
之命	-179
之地	-180
乡勇	-181
买卖	-182
乱世	-183
了这	-184
了那	-185
二人	-186
云长	-187
人了	-188
从军	-189
令各	-190
但愿	-191
何出	-192
余战	-193
你们	-194
你就	-195
你等	-196
便是	-197
俺老	-198
公元	-199
冒认	-200
出手	-201
刘公	-202
别部	-203
募兵	-204
十年	-205
却封	-206
原来	-207
去叫	-208
去投	-209
取肉	-210
取钱	-211
古桑	-212
只能	-213
司马	-214
名字	-215
听说	-216
响应	-217
喜县	-218
在甲	-219
在这	-220
城外	-221
大功	-222
大将	-223
大树	-224
天已	-225
天当	-226
失敬	-227
好汉	-228
如今	-229
如子	-230
安民	-231
官职	-232
害民	-233
小小	-234
尔等	-235
就在	-236
市喽	-237
布告	-238
平生	-239
幽州	-240
张飞	-241
得得	-242
微功	-243
必出	-244
快请	-245
憋死	-246
我的	-247
我看	-248
打死	-249
报国	-250
招募	-251
拿不	-252
拿去	-253
效力	-254
既为	-255
早有	-256
最后	-257
有冤	-258
朝政	-259
本官	-260
杀猪	-261
正是	-262
此肉	-263
此长	-264
残害	-265
涿郡	-266
爱民	-267
狗官	-268
生死	-269
白身	-270
的报	-271
目下	-272
相随	-273
知道	-274
结交	-275
给我	-276
给给	-277
绝无	-278
自己	-279
落得	-280
虚报	-281
观者	-282
解良	-283
话说	-284
豆子	-285
财物	-286
贪官	-287
贵人	-288
赔本	-289
起兵	-290
还好	-291
还敢	-292
还是	-293
这个	-294
逐鹿	-295
造反	-296
陛下	-297
难道	-298
颇有	-299
饥饿	-300
▁买肉	-301
▁灵帝	-302
▁董卓	-303
万万岁	-304
不敢当	-305
不能拿	-306
为官清	-307
也不是	-308
买肉的	-309
二位爷	-310
今黄巾	-311
令各州	-312
何出身	-313
你说吧	-314
俺老张	-315
分明是	-316
到了这	-317
去投军	-318
叫什么	-319
在甲子	-320
大将军	-321
天已死	-322
天当立	-323
安喜县	-324
害民贼	-325
小小的	-326
岂不是	-327
开市喽	-328
张屠夫	-329
得此职	-330
怎么干	-331
我拿钱	-332
挪开了	-333
方豪强	-334
是我的	-335
杀了他	-336
杀猪的	-337
来了吗	-338
此长叹	-339
统一于	-340
自涿郡	-341
这样的	-342
▁买肉人	-343
▁围观者	-344
万岁万岁	-345
三十余战	-346
二位英雄	-347
佩服佩服	-348
别部司马	-349
同去投军	-350
天下响应	-351
天下大事	-352
天下大吉	-353
岁在甲子	-354
憋死人了	-355
我们东家	-356
我告诉你	-357
打呀打呀	-358
拿不出来	-359
无有无有	-360
是何出身	-361
来了来了	-362
没有劣迹	-363
爱民如子	-364
苍天已死	-365
诏令各州	-366
黄天当立	-367
叫什么名字	-368
孝景帝玄孙	-369
小小的县尉	-370
自涿郡起兵	-371
中山靖王之后	-372
大小三十余战	-373
既为汉室宗亲	-374
万岁万岁万万岁	-375
同年同月同日死	-376
但愿同年同月同日死	-377
84	-378
▁《	-379
一举	-380
一介	-381
一席	-382
一怒	-383
一拜	-384
一枪	-385
一查	-386
一见	-387
一部	-388
七尺	-389
七雄	-390
万的	-391
上可	-392
上好	-393
上挣	-394
上行	-395
上酒	-396
上饮	-397
下好	-398
下说	-399
一事	-400
一块	-401
不买	-402
不去	-403
不反	-404
不周	-405
不善	-406
不如	-407
不妨	-408
不忘	-409
不快	-410
不管	-411
不让	-412
与你	-413
与公	-414
且退	-415
丢盔	-416
个人	-417
个在	-418
为你	-419
为躲	-420
为防	-421
举义	-422
义气	-423
之下	-424
之争	-425
之内	-426
之士	-427
之有	-428
之禽	-429
乘凉	-430
乡里	-431
买主	-432
买些	-433
乱五	-434
乱动	-435
了多	-436
争战	-437
争斗	-438
二哥	-439
二年	-440
二心	-441
于在	-442
五霸	-443
些许	-444
亡命	-445
亭侯	-446
人民	-447
人能	-448
今往	-449
从实	-450
从此	-451
他人	-452
以来	-453
众人	-454
会来	-455
但去	-456
位快	-457
位更	-458
何不	-459
何人	-460
何职	-461
何足	-462
作甚	-463
你做	-464
你分	-465
你去	-466
你可	-467
你带	-468
你瞧	-469
使人	-470
使平	-471
依着	-472
便马	-473
保境	-474
俱是	-475
俺只	-476
倒要	-477
做了	-478
做点	-479
做的	-480
兄弟	-481
兄长	-482
公孙	-483
兵征	-484
其后	-485
其良	-486
再也	-487
冠大	-488
冲帝	-489
击垮	-490
刘焉	-491
刘虞	-492
利用	-493
别烦	-494
到任	-495
到头	-496
到我	-497
副模	-498
割肉	-499
下吧	-500
么多	-501
他私	-502
他能	-503
但凭	-504
你只	-505
你管	-506
侍得	-507
六年	-508
割据	-509
力不	-510
功啊	-511
功未	-512
功绩	-513
势力	-514
势陷	-515
十天	-516
十岁	-517
十常	-518
千上	-519
单丝	-520
卖不	-521
卖啊	-522
卖肉	-523
占领	-524
卸甲	-525
原处	-526
去为	-527
去吧	-528
去看	-529
县令	-530
又犯	-531
又被	-532
又要	-533
又说	-534
又请	-535
又起	-536
及其	-537
取你	-538
叙谈	-539
只做	-540
只知	-541
只给	-542
只许	-543
可尽	-544
同举	-545
名羽	-546
听君	-547
告示	-548
命官	-549
命疆	-550
嘴硬	-551
因看	-552
因祖	-553
园三	-554
国演	-555
土地	-556
在战	-557
在是	-558
在老	-559
地界	-560
城邑	-561
多亏	-562
大恩	-563
大胆	-564
天人	-565
天子	-566
天我	-567
天涯	-568
太后	-569
太守	-570
如故	-571
姓张	-572
威逼	-573
字翼	-574
它的	-575
守士	-576
守平	-577
安帝	-578
官吏	-579
官归	-580
官逼	-581
官鬻	-582
害怕	-583
家等	-584
家资	-585
容易	-586
寻找	-587
将统	-588
将造	-589
小块	-590
就好	-591
就该	-592
尽黄	-593
居于	-594
屈身	-595
岁游	-596
州县	-597
州府	-598
已露	-599
▁桃	-600
且有	-601
主之	-602
二字	-603
二弟	-604
亡线	-605
人说	-606
你一	-607
你仗	-608
先了	-609
光和	-610
势大	-611
同你	-612
后来	-613
向来	-614
因力	-615
城门	-616
师震	-617
帐下	-618
干政	-619
年仅	-620
年天	-621
并立	-622
开始	-623
开这	-624
弄权	-625
征暴	-626
徒四	-627
得找	-628
心中	-629
心疼	-630
忠义	-631
忠良	-632
快坐	-633
快快	-634
快着	-635
快说	-636
怎不	-637
恨财	-638
恶鬼	-639
惊人	-640
想光	-641
愈烈	-642
意下	-643
意报	-644
意赶	-645
愚民	-646
成金	-647
我也	-648
我将	-649
我打	-650
我是	-651
我等	-652
我观	-653
我许	-654
战国	-655
战火	-656
戮之	-657
所谓	-658
才举	-659
扎手	-660
打人	-661
找你	-662
招来	-663
择木	-664
拿出	-665
挪不	-666
接参	-667
放告	-668
放在	-669
敢问	-670
整旧	-671
族人	-672
无门	-673
既然	-674
日益	-675
早就	-676
明就	-677
明诏	-678
春秋	-679
是是	-680
是条	-681
曾听	-682
替频	-683
最爱	-684
有五	-685
有仇	-686
有八	-687
有对	-688
有请	-689
朝贵	-690
木难	-691
末年	-692
本了	-693
本县	-694
本领	-695
杀戮	-696
村中	-697
来人	-698
来的	-699
上老	-700
不住	-701
不痛	-702
为好	-703
为谁	-704
人是	-705
何故	-706
你竟	-707
充哑	-708
兵少	-709
削去	-710
剿讨	-711
厮也	-712
反在	-713
发了	-714
受制	-715
叫你	-716
名飞	-717
君罔	-718
和连	-719
咬一	-720
尚未	-721
已经	-722
当真	-723
待怎	-724
得遇	-725
必非	-726
怀壮	-727
意加	-728
时耶	-729
枉法	-730
枉男	-731
架子	-732
架的	-733
某以	-734
某姓	-735
某家	-736
某誓	-737
查上	-738
查出	-739
树高	-740
桓帝	-741
楚汉	-742
欲成	-743
欺压	-744
正值	-745
正月	-746
此一	-747
此事	-748
此官	-749
此意	-750
此次	-751
此行	-752
此言	-753
此话	-754
武夫	-755
武艺	-756
殇帝	-757
比是	-758
民反	-759
气象	-760
水相	-761
汉和	-762
汉子	-763
江湖	-764
污吏	-765
流落	-766
清理	-767
渐重	-768
漂泊	-769
漂流	-770
灭亡	-771
烧官	-772
然敢	-773
照人	-774
狗仗	-775
狗命	-776
猖獗	-777
现居	-778
理呀	-779
瓒表	-780
甚觉	-781
生灵	-782
留着	-783
的吗	-784
的祖	-785
的还	-786
皆为	-787
皆可	-788
皇亲	-789
相投	-790
相救	-791
相送	-792
看吧	-793
真真	-794
瞧他	-795
祖业	-796
私之	-797
秦朝	-798
窦建	-799
不就	-800
丛中	-801
中肉	-802
书啊	-803
了吗	-804
亲自	-805
仅得	-806
会诈	-807
但取	-808
你屡	-809
你要	-810
俺还	-811
出去	-812
分与	-813
别图	-814
割成	-815
即为	-816
可怜	-817
大计	-818
孙坚	-819
将肉	-820
愿足	-821
我去	-822
早说	-823
明主	-824
是呀	-825
有渝	-826
栖鸾	-827
污辱	-828
皮子	-829
站住	-830
章和	-831
第七	-832
精壮	-833
索取	-834
索要	-835
练嘴	-836
终是	-837
结义	-838
结拜	-839
给他	-840
给你	-841
绝技	-842
继位	-843
而下	-844
而走	-845
职铭	-846
聚众	-847
胜读	-848
胡来	-849
能成	-850
自信	-851
至今	-852
荆棘	-853
荼毒	-854
蔓延	-855
行贿	-856
衰败	-857
装聋	-858
裹尸	-859
要下	-860
要赔	-861
要进	-862
见了	-863
言在	-864
言语	-865
讨贼	-866
让我	-867
访友	-868
诓骗	-869
话呀	-870
说一	-871
请受	-872
请查	-873
豪杰	-874
货真	-875
质帝	-876
贪赃	-877
起义	-878
还须	-879
这位	-880
这块	-881
这肉	-882
这般	-883
这话	-884
追捕	-885
送炭	-886
那个	-887
那厮	-888
那天	-889
那我	-890
都尉	-891
都是	-892
酎金	-893
钱呢	-894
闪开	-895
难与	-896
难呐	-897
顺帝	-898
领教	-899
一条	-900
不二	-901
不弃	-902
与兄	-903
为帝	-904
为难	-905
之职	-906
也颇	-907
二十	-908
人贵	-909
价实	-910
兵匮	-911
卖吧	-912
可曾	-913
告辞	-914
咐啊	-915
如洗	-916
家风	-917
将乏	-918
小人	-919
小心	-920
就依	-921
当何	-922
必有	-923
我想	-924
按期	-925
暴打	-926
某愿	-927
某的	-928
正好	-929
沙始	-930
由此	-931
相伴	-932
相瞒	-933
终身	-934
缘故	-935
若蒙	-936
说吧	-937
还有	-938
重振	-939
马上	-940
驱使	-941
鲁莽	-942
184	-943
▁众臣	-944
▁群雄	-945
一个少	-946
一事无	-947
一刀宰	-948
一席话	-949
一条心	-950
丈夫正	-951
三国演	-952
三天里	-953
三弟呀	-954
上好的	-955
上报国	-956
上挣扎	-957
上饮酒	-958
下说话	-959
不为国	-960
不可胡	-961
不可造	-962
不周密	-963
不善呐	-964
不得杀	-965
不成了	-966
不成线	-967
不敢了	-968
不敢呐	-969
不明就	-970
不痛快	-971
不能及	-972
不让进	-973
不赔本	-974
与兄患	-975
与朝政	-976
且有宦	-977
且退下	-978
东家不	-979
东解良	-980
两个在	-981
个人哪	-982
个狗官	-983
个装聋	-984
中送炭	-985
为你我	-986
为尔等	-987
为帝胄	-988
为生死	-989
为谁人	-990
为躲避	-991
举义旗	-992
久必分	-993
久必合	-994
义军焚	-995
之下杀	-996
之命即	-997
之天下	-998
乘凉嘛	-999
▁击	-1000
不满	-1001
不论	-1002
且饶	-1003
之人	-1004
之季	-1005
他十	-1006
以任	-1007
住手	-1008
你收	-1009
便了	-1010
俱身	-1011
像你	-1012
前功	-1013
同道	-1014
备欲	-1015
好帮	-1016
寻师	-1017
少钱	-1018
岂不	-1019
常思	-1020
当堂	-1021
时域	-1022
是要	-1023
显官	-1024
本当	-1025
果然	-1026
株千	-1027
用武	-1028
直到	-1029
真是	-1030
真金	-1031
着俺	-1032
肝胆	-1033
苦苦	-1034
证据	-1035
请愿	-1036
赐予	-1037
身上	-1038
都得	-1039
鸟官	-1040
不满者	-1041
也不给	-1042
也不行	-1043
也颇知	-1044
买主儿	-1045
买些吧	-1046
买豆子	-1047
乱世则	-1048
乱五百	-1049
了那厮	-1050
于他人	-1051
五岁游	-1052
五霸争	-1053
井中肉	-1054
京师震	-1055
人恶鬼	-1056
人是谁	-1057
人能拿	-1058
什么事	-1059
今天我	-1060
今往后	-1061
今日在	-1062
今日幸	-1063
今日恐	-1064
他暴打	-1065
他的祖	-1066
他私下	-1067
代玄孙	-1068
以任取	-1069
但去无	-1070
位快来	-1071
何必非	-1072
何故作	-1073
何足挂	-1074
你不可	-1075
你卖吧	-1076
你如何	-1077
你就分	-1078
你就得	-1079
你屡立	-1080
你有何	-1081
你等卖	-1082
你要是	-1083
你说是	-1084
你还敢	-1085
你这是	-1086
你难道	-1087
使人情	-1088
使平民	-1089
依着我	-1090
便流落	-1091
便马革	-1092
俗话说	-1093
俱身怀	-1094
俺与你	-1095
俺只是	-1096
俺姓张	-1097
俺早有	-1098
俺知道	-1099
88	-1100
一支	-1101
一来	-1102
一贫	-1103
七年	-1104
下安	-1105
不凡	-1106
不应	-1107
与死	-1108
为兄	-1109
乃是	-1110
之故	-1111
交纳	-1112
亦适	-1113
他已	-1114
党掣	-1115
其中	-1116
兼并	-1117
冤呐	-1118
力薄	-1119
势单	-1120
势造	-1121
十八	-1122
半生	-1123
原是	-1124
可是	-1125
在便	-1126
场上	-1127
崛起	-1128
常人	-1129
并起	-1130
怕吃	-1131
想我	-1132
成地	-1133
成林	-1134
打算	-1135
故授	-1136
无力	-1137
未曾	-1138
然而	-1139
爵位	-1140
皆非	-1141
真对	-1142
自募	-1143
茬儿	-1144
迅速	-1145
逃命	-1146
骨三	-1147
黎民	-1148
一来呢	-1149
主之臣	-1150
俺颇有	-1151
借此一	-1152
做买卖	-1153
做得此	-1154
儿七尺	-1155
党掣肘	-1156
入骨三	-1157
六年了	-1158
共戮之	-1159
关名羽	-1160
关某有	-1161
关某虽	-1162
兵征剿	-1163
其后数	-1164
其良木	-1165
凡有对	-1166
凤之地	-1167
凭什么	-1168
出去走	-1169
击垮窦	-1170
分明你	-1171
刘公啊	-1172
刘玄德	-1173
到头来	-1174
到我庄	-1175
副模样	-1176
割据之	-1177
力不足	-1178
功未有	-1179
加之地	-1180
势陷害	-1181
十岁的	-1182
十年间	-1183
卑职铭	-1184
卖不了	-1185
卖就是	-1186
卖肉的	-1187
即由此	-1188
却只能	-1189
却封了	-1190
却落得	-1191
原县令	-1192
原处吧	-1193
去叫他	-1194
县吏要	-1195
县尉吧	-1196
又待怎	-1197
又犯我	-1198
又说回	-1199
不惯	-1200
与他	-1201
中竟	-1202
为图	-1203
之日	-1204
井里	-1205
人势	-1206
人怎	-1207
他是	-1208
余年	-1209
你也	-1210
做主	-1211
全归	-1212
公肥	-1213
准奏	-1214
几个	-1215
剿戮	-1216
勒索	-1217
历经	-1218
又是	-1219
听清	-1220
哪得	-1221
官印	-1222
就少	-1223
平定	-1224
弟兄	-1225
往上	-1226
微辞	-1227
意找	-1228
我还	-1229
才是	-1230
护人	-1231
无知	-1232
略有	-1233
的那	-1234
知也	-1235
要挟	-1236
谁能	-1237
黄土	-1238
上逐鹿	-1239
人怎的	-1240
他没有	-1241
你一遭	-1242
你几个	-1243
全归你	-1244
取钱财	-1245
变成金	-1246
古桑庇	-1247
古话说	-1248
只做个	-1249
只恨财	-1250
只给个	-1251
只能空	-1252
只许到	-1253
可如今	-1254
可怜见	-1255
合之人	-1256
后公孙	-1257
君罔上	-1258
吩咐啊	-1259
听清楚	-1260
听说过	-1261
告从军	-1262
命疆场	-1263
咬一口	-1264
在上面	-1265
在下面	-1266
在便好	-1267
在老家	-1268
在这里	-1269
在饥饿	-1270
城外遛	-1271
城门口	-1272
复祖业	-1273
多猪肉	-1274
大事定	-1275
大哥了	-1276
大恩呐	-1277
大树哇	-1278
大树底	-1279
天下恶	-1280
天要下	-1281
失敬啊	-1282
奉天子	-1283
好帮手	-1284
字云长	-1285
字翼德	-1286
学四方	-1287
它的反	-1288
守备之	-1289
官归乡	-1290
官鬻爵	-1291
定居于	-1292
实在是	-1293
宦官直	-1294
家徒四	-1295
家必出	-1296
家等候	-1297
家风呢	-1298
对关羽	-1299
)。	-1300
一顿	-1301
之间	-1302
他为	-1303
何为	-1304
你送	-1305
便要	-1306
俺是	-1307
出力	-1308
在故	-1309
坐坐	-1310
得名	-1311
打的	-1312
此等	-1313
滴泪	-1314
真窝	-1315
眼前	-1316
让俺	-1317
轰出	-1318
遛马	-1319
一枪效	-1320
之愿足	-1321
你送掉	-1322
俺是个	-1323
在刘虞	-1324
家出力	-1325
寻找志	-1326
就是你	-1327
就是要	-1328
就该造	-1329
岂不闻	-1330
州县界	-1331
州府郡	-1332
已有五	-1333
帝继位	-1334
干政的	-1335
年古桑	-1336
年天灾	-1337
年正月	-1338
张爷呀	-1339
当何罪	-1340
当如此	-1341
往上堆	-1342
征暴敛	-1343
待我将	-1344
得得得	-1345
得找棵	-1346
必将造	-1347
快去看	-1348
快给我	-1349
怀壮志	-1350
怎有钱	-1351
想做点	-1352
意加害	-1353
意赶来	-1354
愿与公	-1355
成千上	-1356
成林哪	-1357
我为何	-1358
我也曾	-1359
我们救	-1360
我怎么	-1361
我漂流	-1362
我看这	-1363
打人呐	-1364
打架的	-1365
挪开此	-1366
损公肥	-1367
整旧日	-1368
方才举	-1369
早说呢	-1370
时势造	-1371
是不是	-1372
是刘兄	-1373
是因力	-1374
是某家	-1375
替频繁	-1376
最后又	-1377
有一人	-1378
有一身	-1379
有何难	-1380
有你带	-1381
有冤者	-1382
有贪赃	-1383
来的官	-1384
某以为	-1385
某向来	-1386
某打的	-1387
正所谓	-1388
此人贵	-1389
此官呐	-1390
民不得	-1391
水相逢	-1392
汉殇帝	-1393
沙始见	-1394
派将统	-1395
淘尽黄	-1396
灵帝等	-1397
烧官府	-1398
爆发了	-1399
独木难	-1400
留着他	-1401
的报仇	-1402
的还怕	-1403
皇位更	-1404
看他能	-1405
真是雪	-1406
真的吗	-1407
真窝囊	-1408
瞧他那	-1409
知道了	-1410
磨豆子	-1411
立了那	-1412
第七子	-1413
第十八	-1414
纷争战	-1415
终于在	-1416
给他来	-1417
给你钱	-1418
给给给	-1419
而下效	-1420
而得名	-1421
而走险	-1422
肉就在	-1423
自会来	-1424
臭朝廷	-1425
花了多	-1426
被削去	-1427
要不是	-1428
要叫你	-1429
要屈身	-1430
言之有	-1431
讨猪肉	-1432
让你分	-1433
记不忘	-1434
证据者	-1435
请二位	-1436
读布告	-1437
谢上差	-1438
谢陛下	-1439
还不快	-1440
还不是	-1441
还如此	-1442
还尚未	-1443
这二人	-1444
这便是	-1445
这势单	-1446
这厮也	-1447
这官印	-1448
这就好	-1449
这督邮	-1450
这肉啊	-1451
这这这	-1452
逐渐重	-1453
那孙坚	-1454
那时域	-1455
那村中	-1456
郡自募	-1457
难与共	-1458
难道说	-1459
非打死	-1460
非栖鸾	-1461
马上分	-1462
▁张屠夫	-1463
▁桃园三	-1464
▁第一部	-1465
一事无成	-1466
一介武夫	-1467
一支族人	-1468
一见如故	-1469
一贫如洗	-1470
七雄并立	-1471
万的饥饿	-1472
三位相救	-1473
三位英雄	-1474
三国演义	-1475
上差请查	-1476
上报国家	-1477
上老本了	-1478
上面让我	-1479
下安黎民	-1480
不买不可	-1481
不可胡言	-1482
不可造次	-1483
不可鲁莽	-1484
不就拿出	-1485
不应为国	-1486
不得杀尽	-1487
不必如此	-1488
不必害怕	-1489
不惯豪强	-1490
不敢冒认	-1491
不敢相瞒	-1492
不敢诓骗	-1493
不明就里	-1494
不知二位	-1495
不知什么	-1496
不论大小	-1497
不赔本呢	-1498
与死亡线	-1499
东家不来	-1500
东汉末年	-1501
东汉章和	-1502
东解良人	-1503
丢盔卸甲	-1504
为图大事	-1505
为官容易	-1506
为官清廉	-1507
为官清正	-1508
为难大哥	-1509
举荐他为	-1510
举荐你做	-1511
么多大功	-1512
义气相投	-1513
之争又起	-1514
之愿足矣	-1515
之躯即为	-1516
之间已露	-1517
也不枉男	-1518
乡勇守备	-1519
乡里百姓	-1520
争斗愈烈	-1521
二人结拜	-1522
二十有八	-1523
五霸争雄	-1524
些许猪肉	-1525
亡命江湖	-1526
交纳酎金	-1527
亦适时耶	-1528
京师震动	-1529
亲自领教	-1530
什么绿豆	-1531
什么鸟官	-1532
仅得县尉	-1533
今日且饶	-1534
今日又被	-1535
今日幸会	-1536
今黄巾欺	-1537
从今往后	-1538
从军守士	-1539
从实招来	-1540
他不让进	-1541
他是朝廷	-1542
他的祖先	-1543
但凭驱使	-1544
但去无妨	-1545
但取不妨	-1546
你不能走	-1547
你且退下	-1548
你个狗官	-1549
你们东家	-1550
你去作甚	-1551
你只会诈	-1552
你如何蓄	-1553
你挪开了	-1554
你收下吧	-1555
你是怎样	-1556
你是本县	-1557
你竟然敢	-1558
你等贪官	-1559
你说的那	-1560
你说话呀	-1561
你这不是	-1562
便是有钱	-1563
便要心疼	-1564
保境安民	-1565
俱是白身	-1566
俺老张恨	-1567
俺还曾听	-1568
倒要查上	-1569
借此一避	-1570
做了都尉	-1571
像你二位	-1572
光和七年	-1573
入骨三分	-1574
关某平生	-1575
兵匮将乏	-1576
兼并土地	-1577
冒认皇亲	-1578
凭什么呀	-1579
出去走走	-1580
出手不凡	-1581
分与众人	-1582
分久必合	-1583
刘兄之躯	-1584
刘公请愿	-1585
刘备一拜	-1586
刘备三人	-1587
刘备前功	-1588
利用宦官	-1589
别人能拿	-1590
别图大计	-1591
到了这涿	-1592
到任以来	-1593
割成小块	-1594
割据之势	-1595
剿戮黄巾	-1596
剿讨黄巾	-1597
勒索财物	-1598
募兵告示	-1599
募兵守备	-1600
十天之内	-1601
十常侍得	-1602
十年书啊	-1603
卖就是了	-1604
占领城邑	-1605
即便马革	-1606
却封了个	-1607
却封显官	-1608
原来如此	-1609
原来贵人	-1610
县吏要害	-1611
县尉之职	-1612
又待怎讲	-1613
又是督邮	-1614
又要胡来	-1615
及其兄长	-1616
取你狗命	-1617
取钱出来	-1618
只知逃命	-1619
叫张屠夫	-1620
可以任取	-1621
可尽知也	-1622
各位快来	-1623
合久必分	-1624
同举大事	-1625
哪得财物	-1626
四方百姓	-1627
四方精壮	-1628
在下刘备	-1629
在何处啊	-1630
在战场上	-1631
在故意找	-1632
在那儿呢	-1633
备欲同你	-1634
天下大乱	-1635
天下豪杰	-1636
天可怜见	-1637
天涯漂泊	-1638
天要下雨	-1639
太守刘焉	-1640
如此自信	-1641
官逼民反	-1642
宦官弄权	-1643
家徒四壁	-1644
寸功未有	-1645
寻师访友	-1646
小心为好	-1647
就在眼前	-1648
就在那儿	-1649
崛起之时	-1650
平定之日	-1651
平生最爱	-1652
幽州地界	-1653
开这磨盘	-1654
弃官归乡	-1655
当丈夫正	-1656
当堂出手	-1657
得其良木	-1658
得此官职	-1659
得遇明主	-1660
心中滴泪	-1661
必出英雄	-1662
必有缘故	-1663
忠义二字	-1664
快请快请	-1665
怎不想光	-1666
您今日恐	-1667
想我关某	-1668
意下如何	-1669
我不能拿	-1670
我们要进	-1671
我卖不了	-1672
我大哥呢	-1673
我想招募	-1674
我观二位	-1675
战国之时	-1676
战火迅速	-1677
才是贪官	-1678
打也不是	-1679
报国无门	-1680
择主之臣	-1681
择木之禽	-1682
拿去拿去	-1683
挪开磨盘	-1684
捏你几个	-1685
放告三天	-1686
放在何处	-1687
故得此职	-1688
方豪强横	-1689
无知愚民	-1690
日益衰败	-1691
早有言在	-1692
春秋之季	-1693
是啊是啊	-1694
是我的了	-1695
是条汉子	-1696
有一株千	-1697
有何打算	-1698
有冤的报	-1699
有渝此言	-1700
朝廷上可	-1701
朝廷兵少	-1702
朝廷效力	-1703
朝廷无力	-1704
未曾虚报	-1705
本官此次	-1706
杀人怎的	-1707
杀戮官吏	-1708
某愿相随	-1709
某的买卖	-1710
查出劣迹	-1711
树高冠大	-1712
欲成大事	-1713
正值乱世	-1714
正是在下	-1715
正是用武	-1716
此肉已经	-1717
此话当真	-1718
武艺惊人	-1719
残害生灵	-1720
残害百姓	-1721
比是群雄	-1722
没有按期	-1723
灭亡之后	-1724
然而如此	-1725
特意赶来	-1726
狗仗人势	-1727
现今黄巾	-1728
现居何职	-1729
生死相随	-1730
略有微功	-1731
皆非常人	-1732
目下黄巾	-1733
直到今日	-1734
真不痛快	-1735
真对不住	-1736
督邮再也	-1737
督邮又请	-1738
督邮可曾	-1739
督邮大人	-1740
督邮威逼	-1741
督邮有请	-1742
督邮此行	-1743
督邮污辱	-1744
空有一身	-1745
索取贿赂	-1746
索要贿赂	-1747
练嘴皮子	-1748
终身相伴	-1749
结交朝贵	-1750
给我一块	-1751
绝无二心	-1752
绝无此事	-1753
统一于汉	-1754
统一于秦	-1755
群雄并起	-1756
而最后又	-1757
聚众造反	-1758
肉全归你	-1759
肝胆照人	-1760
能成功啊	-1761
自己去叫	-1762
致使平民	-1763
若蒙不弃	-1764
荆棘丛中	-1765
荼毒百姓	-1766
萍水相逢	-1767
董卓那厮	-1768
虚报功绩	-1769
要挟尔等	-1770
讨贼安民	-1771
让俺老张	-1772
该当何罪	-1773
说一不二	-1774
谢玄德公	-1775
货真价实	-1776
贼咬一口	-1777
赐予刘备	-1778
起义军焚	-1779
近又犯我	-1780
还打人呐	-1781
还敢嘴硬	-1782
这个刘备	-1783
这位壮士	-1784
这有何难	-1785
这样的话	-1786
这般架子	-1787
那古桑庇	-1788
那我不管	-1789
都得拿钱	-1790
铤而走险	-1791
颇有微功	-1792
骂也不行	-1793
高举义旗	-1794
黄巾势大	-1795
黄巾起义	-1796
▁群雄逐鹿	-1797
一个少一个	-1798
一个杀猪的	-1799
一举击垮窦	-1800
一刀一枪效	-1801
一刀宰了他	-1802
一怒之下杀	-1803
三人一条心	-1804
上好的绿豆	-1805
上行而下效	-1806
上逐鹿亭侯	-1807
上饮酒叙谈	-1808
下好乘凉嘛	-1809
不如杀了他	-1810
不能留着他	-1811
个装聋充哑	-1812
中竟为谁人	-1813
为你我三人	-1814
为兄给他来	-1815
为尔等做主	-1816
为生死弟兄	-1817
为躲避追捕	-1818
为防州府郡	-1819
乃是孝景帝	-1820
乱五百余年	-1821
他十五岁游	-1822
他暴打一顿	-1823
代玄孙身上	-1824
何不早说呢	-1825
何为大丈夫	-1826
你仗势陷害	-1827
你们两个在	-1828
你就得卖啊	-1829
你屡立大功	-1830
你是买豆子	-1831
你是卖肉的	-1832
你瞧瞧他那	-1833
你要是挪不	-1834
你这个人哪	-1835
你这是为何	-1836
你送掉我许	-1837
俱身怀绝技	-1838
俺只是听说	-1839
俺姓张名飞	-1840
俺早有此意	-1841
俺颇有家资	-1842
儿七尺之躯	-1843
党掣肘之故	-1844
关某之命即	-1845
关某在老家	-1846
关某有意报	-1847
凡有对县尉	-1848
分明是豆粉	-1849
刘兄你说吧	-1850
别烦大哥了	-1851
十岁的汉和	-1852
单丝不成线	-1853
却只能落得	-1854
又说回来了	-1855
反在此长叹	-1856
受制于他人	-1857
只许到城外	-1858
叫张屠夫来	-1859
可如今他已	-1860
可我告诉你	-1861
可是到了这	-1862
同道合之人	-1863
后公孙瓒表	-1864
听君一席话	-1865
听清楚了吗	-1866
和连年天灾	-1867
在上面为官	-1868
在刘虞帐下	-1869
在这三天里	-1870
城外遛遛马	-1871
大将军窦建	-1872
天人共戮之	-1873
奉天子明诏	-1874
如今在下面	-1875
守平原县令	-1876
安喜县便了	-1877
宦官干政的	-1878
宦官直接参	-1879
家必出贵人	-1880
将二位英雄	-1881
小人不敢呐	-1882
就依大将军	-1883
就少在这里	-1884
就是要清理	-1885
岂不是要赔	-1886
帝继位之后	-1887
应诏令各州	-1888
必将造成地	-1889
快去看看吧	-1890
快坐下说话	-1891
快给我割肉	-1892
怎么只做个	-1893
怎有钱行贿	-1894
怕吃不成了	-1895
我为官清正	-1896
我们救了他	-1897
我告诉你呀	-1898
我怎么取肉	-1899
我是买肉的	-1900
我漂流半生	-1901
我看就该造	-1902
我还告诉你	-1903
挪开此磨盘	-1904
损公肥私之	-1905
放在原处吧	-1906
故授得此职	-1907
整旧日气象	-1908
方才举磨盘	-1909
既然刘县尉	-1910
时势造英雄	-1911
是何出身呐	-1912
是刘兄之命	-1913
是某家相送	-1914
有仇的报仇	-1915
有你带着俺	-1916
有贪赃枉法	-1917
某姓关名羽	-1918
某誓与兄患	-1919
此等害民贼	-1920
民不得不反	-1921
沙始见真金	-1922
没有劣迹呀	-1923
没有劣迹啊	-1924
河东解良人	-1925
爱民如子啊	-1926
百姓在饥饿	-1927
看他能怎样	-1928
肉就在井里	-1929
自会来找你	-1930
花了多少钱	-1931
苦苦寻找志	-1932
被削去爵位	-1933
言之有理呀	-1934
讨猪肉钱呢	-1935
让俺怎么干	-1936
还如此扎手	-1937
还是磨豆子	-1938
还须派将统	-1939
这个臭朝廷	-1940
这势单力薄	-1941
这块是我的	-1942
这样的英雄	-1943
重振家风呢	-1944
饶命饶命啊	-1945
黄土变成金	-1946
▁桃园三结义	-1947
万的饥饿人民	-1948
三弟不可胡言	-1949
上面让我做的	-1950
不为国家出力	-1951
不买不可乱动	-1952
不应为国效力	-1953
不惯豪强欺压	-1954
不敢当不敢当	-1955
不敢诓骗上差	-1956
不知二位壮士	-1957
东汉章和二年	-1958
之间已露微辞	-1959
今天我非打死	-1960
今日在城门口	-1961
从此亡命江湖	-1962
他是朝廷命官	-1963
何人举荐你做	-1964
何必非要屈身	-1965
何故作此长叹	-1966
你也同去投军	-1967
你可不能走啊	-1968
你挪开了磨盘	-1969
你是来买肉的	-1970
你是来打架的	-1971
你是汉室宗亲	-1972
你有何吩咐啊	-1973
你等卖官鬻爵	-1974
你等贪官污吏	-1975
你管我们东家	-1976
你说是也不是	-1977
俺是个杀猪的	-1978
俺还曾听人说	-1979
倒要查上一查	-1980
做买卖的还怕	-1981
关某之躯即为	-1982
其中一支族人	-1983
其后数十年间	-1984
刘兄不必如此	-1985
利用宦官势力	-1986
卑职铭记不忘	-1987
即便马革裹尸	-1988
即由此而得名	-1989
原是汉室宗亲	-1990
去为刘公请愿	-1991
只恨财力不足	-1992
只给个安喜县	-1993
只能空怀壮志	-1994
各位快来取肉	-1995
哪得财物与他	-1996
四方精壮之士	-1997
在故意找茬儿	-1998
多亏三位相救	-1999
大哥你说话呀	-2000
天下恶人恶鬼	-2001
守备之不周密	-2002
官职不论大小	-2003
定居于楼桑村	-2004
将肉割成小块	-2005
岂不是好帮手	-2006
已有五六年了	-2007
布告四方百姓	-2008
常思上报国家	-2009
平生最爱结交	-2010
幽州太守刘焉	-2011
得找棵大树哇	-2012
快快从实招来	-2013
想做点什么事	-2014
我为何不能拿	-2015
我也曾听说过	-2016
我大哥做得此	-2017
我想招募乡勇	-2018
我等俱是白身	-2019
我自涿郡起兵	-2020
战火迅速蔓延	-2021
打呀打呀打呀	-2022
捏你几个绿豆	-2023
敢问三位英雄	-2024
早有言在先了	-2025
是不是他私下	-2026
是因力不能及	-2027
是要亲自领教	-2028
最后统一于秦	-2029
有冤的报冤呐	-2030
朝廷诏令各州	-2031
朝政日益衰败	-2032
本当取你狗命	-2033
来了来了来了	-2034
果然出手不凡	-2035
某打的就是你	-2036
楚汉之争又起	-2037
正好借此一避	-2038
正是用武之时	-2039
此人贵为帝胄	-2040
独木难成林哪	-2041
玄德公救命啊	-2042
现今黄巾造反	-2043
甚觉义气相投	-2044
皆为朝廷效力	-2045
皆可当堂出手	-2046
皇位更替频繁	-2047
目下正值乱世	-2048
目下黄巾猖獗	-2049
真是雪中送炭	-2050
督邮放告三天	-2051
秦朝灭亡之后	-2052
空有一身本领	-2053
终是一事无成	-2054
胜读十年书啊	-2055
自己募兵守备	-2056
英雄亦适时耶	-2057
见了募兵告示	-2058
让你分你就分	-2059
请二位到我庄	-2060
请受刘备一拜	-2061
贿赂十常侍得	-2062
赔本不赔本呢	-2063
还不快去叫他	-2064
还是小心为好	-2065
还有董卓那厮	-2066
这督邮分明是	-2067
那个督邮威逼	-2068
那古桑庇护人	-2069
那天在战场上	-2070
那孙坚使人情	-2071
难道说大丈夫	-2072
非栖鸾凤之地	-2073
黄巾平定之日	-2074
一举击垮窦太后	-2075
不就拿出来了吗	-2076
与死亡线上挣扎	-2077
也颇知忠义二字	-2078
乱世则必出英雄	-2079
今日且饶你一遭	-2080
今黄巾欺君罔上	-2081
他没有索取贿赂	-2082
你仗势陷害忠良	-2083
你只会诈取钱财	-2084
你如何蓄意加害	-2085
你是本县县尉吧	-2086
你说的那人是谁	-2087
你还敢虚报功绩	-2088
你这不是来了吗	-2089
便是有钱也不给	-2090
便流落到了这涿	-2091
俺与你同去投军	-2092
关某在老家解良	-2093
关某虽一介武夫	-2094
分明你才是贪官	-2095
刘县尉到任以来	-2096
加之地方豪强横	-2097
却落得家徒四壁	-2098
县吏要害刘公啊	-2099
可以任取井中肉	-2100
因祖上逐鹿亭侯	-2101
大事定能成功啊	-2102
宦官干政的开始	-2103
当丈夫正当如此	-2104
怎不想光复祖业	-2105
愿与公同举大事	-2106
我与民秋毫无犯	-2107
我去城外遛遛马	-2108
我大哥秋毫无犯	-2109
我看这荆棘丛中	-2110
打死一个少一个	-2111
方豪强割据之势	-2112
早就一刀宰了他	-2113
有一株千年古桑	-2114
有钱你就得卖啊	-2115
某向来说一不二	-2116
正所谓择木之禽	-2117
此肉是某家相送	-2118
然而如此一来呢	-2119
爆发了黄巾起义	-2120
督邮再也不敢了	-2121
督邮此行不善呐	-2122
立了那么多大功	-2123
终于在光和七年	-2124
要叫你自己去叫	-2125
让俺老张怎么干	-2126
谁能挪开此磨盘	-2127
谢玄德公大恩呐	-2128
起义军焚烧官府	-2129
轰出安喜县便了	-2130
还不是结交朝贵	-2131
还尚未可尽知也	-2132
这便是东汉末年	-2133
这厮也是条汉子	-2134
这话又说回来了	-2135
郡自募乡勇守备	-2136
一刀一枪效命疆场	-2137
一怒之下杀了那厮	-2138
不知二位意下如何	-2139
不知什么天下大事	-2140
且有宦党掣肘之故	-2141
中竟为谁人之天下	-2142
举荐他为别部司马	-2143
乃是孝景帝第七子	-2144
什么鸟官狗仗人势	-2145
今日又被督邮污辱	-2146
今日幸会二位壮士	-2147
他十五岁游学四方	-2148
他的祖先中山靖王	-2149
你也同去投军如何	-2150
你们两个在家等候	-2151
你是怎样得此官职	-2152
你是来讨猪肉钱呢	-2153
你瞧瞧他那副模样	-2154
你竟然敢冒认皇亲	-2155
你送掉我许多猪肉	-2156
俺姓张名飞字翼德	-2157
俺老张恨不得杀尽	-2158
关某平生之愿足矣	-2159
关某有意报告从军	-2160
凡有对县尉不满者	-2161
十天之内天下响应	-2162
却封了个别部司马	-2163
历经大小三十余战	-2164
原来贵人就在眼前	-2165
可是到了这第十八	-2166
因看不惯豪强欺压	-2167
备欲同你二人结拜	-2168
大树底下好乘凉嘛	-2169
实在是没有劣迹呀	-2170
宦官直接参与朝政	-2171
待我将他暴打一顿	-2172
我看就该造它的反	-2173
招募四方精壮之士	-2174
损公肥私之证据者	-2175
本官倒要查上一查	-2176
某姓关名羽字云长	-2177
某誓与兄患难与共	-2178
此肉已经是我的了	-2179
比是群雄崛起之时	-2180
没有按期交纳酎金	-2181
淘尽黄沙始见真金	-2182
督邮可曾为难大哥	-2183
纷争战乱五百余年	-2184
而最后又统一于汉	-2185
要不是我们救了他	-2186
言语之间已露微辞	-2187
近又犯我幽州地界	-2188
还须派将统兵征剿	-2189
逐渐重整旧日气象	-2190
都是上面让我做的	-2191
一个杀猪的这般架子	-2192
也不枉男儿七尺之躯	-2193
二位壮士俱身怀绝技	-2194
今天我非打死你不可	-2195
何人举荐你做此官呐	-2196
你们东家岂不是要赔	-2197
你要是挪不开这磨盘	-2198
做买卖的还怕买主儿	-2199
像你二位这样的英雄	-2200
兼并土地和连年天灾	-2201
刘备三人为躲避追捕	-2202
却只能落得天涯漂泊	-2203
及其兄长大将军窦建	-2204
可如今他已二十有八	-2205
可我告诉你拿不出来	-2206
后公孙瓒表刘备前功	-2207
在刘虞帐下做了都尉	-2208
大丈夫不为国家出力	-2209
如今在下面为官容易	-2210
将二位英雄赐予刘备	-2211
就少在这里练嘴皮子	-2212
您今日恐怕吃不成了	-2213
成千上万的饥饿人民	-2214
既然刘县尉如此自信	-2215
本官此次就是要清理	-2216
楼桑村即由此而得名	-2217
督邮大人为尔等做主	-2218
致使平民百姓在饥饿	-2219
贿赂十常侍得来的官	-2220
为兄给他来个装聋充哑	-2221
二位英雄真是雪中送炭	-2222
便流落到了这涿州县界	-2223
关某之命即是刘兄之命	-2224
关某之躯即为刘兄之躯	-2225
剿讨黄巾大小三十余战	-2226
加之地方豪强横征暴敛	-2227
十岁的汉和帝继位之后	-2228
平生最爱结交天下豪杰	-2229
怎么只做个小小的县尉	-2230
我也曾听说过这样的话	-2231
我们东家早有言在先了	-2232
我们要进去为刘公请愿	-2233
我大哥做得此县尉之职	-2234
捏你几个绿豆便要心疼	-2235
敢问三位英雄现居何职	-2236
是不是他私下要挟尔等	-2237
朝廷上可得找棵大树哇	-2238
苦苦寻找志同道合之人	-2239
那村中有一株千年古桑	-2240
为防州府郡守备之不周密	-2241
何必非要屈身受制于他人	-2242
只给个安喜县小小的县尉	-2243
应诏令各州自己募兵守备	-2244
请二位到我庄上饮酒叙谈	-2245
那古桑庇护人家必出贵人	-2246
那时域中竟为谁人之天下	-2247
你管我们东家赔本不赔本呢	-2248
因看不惯豪强欺压乡里百姓	-2249
必将造成地方豪强割据之势	-2250
这督邮分明是在故意找茬儿	-2251
你们东家岂不是要赔上老本了	-2252
可是到了这第十八代玄孙身上	-2253
备欲同你二人结拜为生死弟兄	-2254
朝廷诏令各州郡自募乡勇守备	-2255
那个督邮威逼县吏要害刘公啊	-2256
俺老张恨不得杀尽天下恶人恶鬼	-2257
这便是东汉末年宦官干政的开始	-2258
本官此次就是要清理你等贪官污吏	-2259
致使平民百姓在饥饿与死亡线上挣扎	-2260
▁群	-2261
▁董	-2262
下面	-2263
个刘	-2264
么事	-2265
么只	-2266
之不	-2267
亏三	-2268
人举	-2269
们要	-2270
任以	-2271
位相	-2272
你且	-2273
做此	-2274
公大	-2275
公救	-2276
公请	-2277
军守	-2278
凉嘛	-2279
出劣	-2280
出身	-2281
募四	-2282
县县	-2283
叫他	-2284
叫张	-2285
周密	-2286
啊是	-2287
境安	-2288
多少	-2289
奉天	-2290
子啊	-2291
子明	-2292
官此	-2293
官污	-2294
害刘	-2295
尉如	-2296
就得	-2297
居何	-2298
府郡	-2299
▁灵	-2300
上万	-2301
个督	-2302
举击	-2303
义旗	-2304
了黄	-2305
于汉	-2306
于秦	-2307
五百	-2308
亡之	-2309
众造	-2310
依大	-2311
其兄	-2312
内天	-2313
军焚	-2314
军窦	-2315
分久	-2316
又统	-2317
可得	-2318
后又	-2319
告四	-2320
善呐	-2321
国之	-2322
在光	-2323
坐下	-2324
守刘	-2325
官势	-2326
将军	-2327
岁的	-2328
州太	-2329
巾欺	-2330
得卖	-2331
得拿	-2332
德公	-2333
必分	-2334
快从	-2335
快去	-2336
快给	-2337
恩呐	-2338
我割	-2339
我幽	-2340
报功	-2341
政的	-2342
救命	-2343
敢了	-2344
敢嘴	-2345
敢虚	-2346
敬啊	-2347
方百	-2348
方精	-2349
无此	-2350
是何	-2351
是卖	-2352
是怎	-2353
有劣	-2354
来找	-2355
树哇	-2356
树底	-2357
样得	-2358
次就	-2359
欺君	-2360
毒百	-2361
民不	-2362
汉之	-2363
汉末	-2364
火迅	-2365
焚烧	-2366
爷呀	-2367
犯我	-2368
理你	-2369
的开	-2370
的汉	-2371
的饥	-2372
着他	-2373
秋之	-2374
竟然	-2375
第一	-2376
等贪	-2377
终于	-2378
统一	-2379
罔上	-2380
老者	-2381
而最	-2382
能走	-2383
自会	-2384
行不	-2385
要查	-2386
要清	-2387
言之	-2388
认皇	-2389
话又	-2390
读布	-2391
走啊	-2392
走险	-2393
还如	-2394
这不	-2395
迹呀	-2396
退下	-2397
逼民	-2398
邮威	-2399
上一	-2400
为别	-2401
举大	-2402
争又	-2403
他没	-2404
会二	-2405
何难	-2406
加之	-2407
古话	-2408
只是	-2409
后数	-2410
在刘	-2411
地和	-2412
备三	-2413
备前	-2414
天在	-2415
姓在	-2416
孙瓒	-2417
帝等	-2418
常侍	-2419
平原	-2420
平民	-2421
并土	-2422
庄上	-2423
强横	-2424
愿与	-2425
我庄	-2426
戮官	-2427
挣扎	-2428
救了	-2429
斗愈	-2430
方才	-2431
旧日	-2432
是听	-2433
是结	-2434
暴敛	-2435
更替	-2436
有无	-2437
有索	-2438
模样	-2439
横征	-2440
民百	-2441
的官	-2442
皇位	-2443
着我	-2444
瞧瞧	-2445
线上	-2446
自领	-2447
荐他	-2448
虞帐	-2449
表刘	-2450
要不	-2451
要亲	-2452
记不	-2453
许猪	-2454
说回	-2455
说话	-2456
请二	-2457
请快	-2458
赂十	-2459
躲避	-2460
还不	-2461
这便	-2462
这有	-2463
连年	-2464
避追	-2465
那副	-2466
邮有	-2467
铤而	-2468
铭记	-2469
长大	-2470
防州	-2471
雄现	-2472
雄逐	-2473
震动	-2474
霸争	-2475
面让	-2476
顾客	-2477
饮酒	-2478
饿与	-2479
饿人	-2480
...	-2481
▁围观	-2482
▁店伙	-2483
▁张屠	-2484
一个杀	-2485
一于汉	-2486
一介武	-2487
一刀一	-2488
一怒之	-2489
一见如	-2490
七雄并	-2491
万岁万	-2492
三人一	-2493
三人为	-2494
三位相	-2495
三十余	-2496
三弟不	-2497
上一查	-2498
上万的	-2499
▁关	-2500
万万	-2501
不给	-2502
交天	-2503
介武	-2504
位到	-2505
你我	-2506
值乱	-2507
做买	-2508
刀一	-2509
刀宰	-2510
卖就	-2511
可鲁	-2512
后统	-2513
告从	-2514
哥了	-2515
好的	-2516
山靖	-2517
巾势	-2518
年了	-2519
廷上	-2520
弟呀	-2521
当不	-2522
得不	-2523
得其	-2524
我三	-2525
日幸	-2526
是不	-2527
是刘	-2528
是磨	-2529
月同	-2530
有意	-2531
木之	-2532
枪效	-2533
某向	-2534
某在	-2535
欲同	-2536
正所	-2537
此亡	-2538
气相	-2539
派将	-2540
涯漂	-2541
生最	-2542
的反	-2543
的绿	-2544
相逢	-2545
看就	-2546
知忠	-2547
翼德	-2548
老家	-2549
肉的	-2550
臭朝	-2551
萍水	-2552
虽一	-2553
要心	-2554
见如	-2555
诏令	-2556
该造	-2557
谓择	-2558
身本	-2559
躯即	-2560
还怕	-2561
这厮	-2562
这里	-2563
造它	-2564
邮分	-2565
里百	-2566
面为	-2567
须派	-2568
飞字	-2569
骗上	-2570
鹿亭	-2571
一举击	-2572
上可得	-2573
上差请	-2574
上行而	-2575
上面让	-2576
下好乘	-2577
下如何	-2578
下安黎	-2579
下黄巾	-2580
不可乱	-2581
不可鲁	-2582
不开这	-2583
不得不	-2584
不敢相	-2585
不敢诓	-2586
不是好	-2587
不是结	-2588
与众人	-2589
与公同	-2590
东家岂	-2591
东家早	-2592
东家赔	-2593
东汉章	-2594
个小小	-2595
个杀猪	-2596
个督邮	-2597
中有一	-2598
为国家	-2599
▁买	-2600
个狗	-2601
为朝	-2602
么名	-2603
了募	-2604
从今	-2605
们救	-2606
位之	-2607
兄不	-2608
兄你	-2609
公同	-2610
刘大	-2611
到城	-2612
去作	-2613
叫什	-2614
可不	-2615
各州	-2616
命江	-2617
在上	-2618
大吉	-2619
官弄	-2620
巾大	-2621
廷无	-2622
怒之	-2623
我拿	-2624
打也	-2625
授得	-2626
敢呐	-2627
日在	-2628
日恐	-2629
是上	-2630
是东	-2631
是了	-2632
是你	-2633
棵大	-2634
死人	-2635
求同	-2636
演义	-2637
甲子	-2638
知逃	-2639
竟为	-2640
职不	-2641
能拿	-2642
荐你	-2643
贼安	-2644
赶来	-2645
速蔓	-2646
遇明	-2647
那么	-2648
黄天	-2649
不是来	-2650
丝不成	-2651
为别部	-2652
为官容	-2653
为防州	-2654
举大事	-2655
举荐你	-2656
么天下	-2657
义二字	-2658
义气相	-2659
之不周	-2660
之地方	-2661
之有理	-2662
也一样	-2663
也不枉	-2664
也是条	-2665
买不可	-2666
买卖的	-2667
买肉人	-2668
了募兵	-2669
了多少	-2670
了这涿	-2671
了这第	-2672
了那么	-2673
了黄巾	-2674
予刘备	-2675
二人结	-2676
二位到	-2677
二位壮	-2678
二位英	-2679
二位这	-2680
于在光	-2681
亏三位	-2682
五六年	-2683
亡之后	-2684
交天下	-2685
亲自领	-2686
人不敢	-2687
人举荐	-2688
人就在	-2689
什么名	-2690
什么绿	-2691
什么鸟	-2692
仇的报	-2693
今在下	-2694
今日且	-2695
今日又	-2696
从今往	-2697
从军守	-2698
从实招	-2699
▁刘	-2700
下豪	-2701
个绿	-2702
买不	-2703
买豆	-2704
交朝	-2705
人哪	-2706
别人	-2707
后公	-2708
回来	-2709
官倒	-2710
宰了	-2711
对县	-2712
岁万	-2713
已死	-2714
巾起	-2715
巾造	-2716
年宦	-2717
应为	-2718
得天	-2719
必将	-2720
怕买	-2721
惯豪	-2722
想招	-2723
我为	-2724
报告	-2725
故得	-2726
敢当	-2727
是来	-2728
来如	-2729
某虽	-2730
死亡	-2731
死相	-2732
淘尽	-2733
点什	-2734
看不	-2735
立大	-2736
经大	-2737
诈取	-2738
谁人	-2739
赔上	-2740
这二	-2741
迹啊	-2742
酒叙	-2743
问三	-2744
雄并	-2745
马革	-2746
高冠	-2747
他不让	-2748
他十五	-2749
们东家	-2750
任以来	-2751
会来找	-2752
位之后	-2753
位英雄	-2754
何不早	-2755
何处啊	-2756
作此长	-2757
你不能	-2758
你且退	-2759
你二人	-2760
你二位	-2761
你们两	-2762
你做此	-2763
你带着	-2764
你挪开	-2765
你是买	-2766
你是卖	-2767
你是怎	-2768
你是汉	-2769
你竟然	-2770
你等贪	-2771
你自己	-2772
你说话	-2773
佩服佩	-2774
侍得来	-2775
依大将	-2776
倒要查	-2777
做了都	-2778
兄你说	-2779
兄给他	-2780
光和七	-2781
公孙瓒	-2782
关某在	-2783
关某平	-2784
兵匮将	-2785
兵守备	-2786
其兄长	-2787
内天下	-2788
冒认皇	-2789
军如何	-2790
出劣迹	-2791
出手不	-2792
出来了	-2793
出英雄	-2794
分久必	-2795
分你就	-2796
刘兄不	-2797
刘兄之	-2798
刘公请	-2799
▁督	-2800
不行	-2801
为汉	-2802
么干	-2803
予刘	-2804
人一	-2805
代玄	-2806
你二	-2807
刘玄	-2808
则必	-2809
吏要	-2810
君一	-2811
哥你	-2812
国无	-2813
字云	-2814
官容	-2815
对关	-2816
年同	-2817
年间	-2818
应诏	-2819
开了	-2820
当取	-2821
成小	-2822
战乱	-2823
战场	-2824
报仇	-2825
收下	-2826
敢冒	-2827
是为	-2828
是本	-2829
有微	-2830
来买	-2831
来讨	-2832
桑庇	-2833
此自	-2834
死你	-2835
民秋	-2836
汉殇	-2837
益衰	-2838
空怀	-2839
经是	-2840
老本	-2841
能落	-2842
致使	-2843
行而	-2844
谢玄	-2845
贼咬	-2846
郡守	-2847
难大	-2848
颇知	-2849
风呢	-2850
▁第一	-2851
下做了	-2852
不必害	-2853
东汉末	-2854
个刘备	-2855
为汉室	-2856
二位意	-2857
亡命江	-2858
值乱世	-2859
刘备一	-2860
刘备三	-2861
刘备前	-2862
刘虞帐	-2863
别人能	-2864
别图大	-2865
别部司	-2866
到今日	-2867
削去爵	-2868
力不能	-2869
劣迹呀	-2870
劣迹啊	-2871
勇守备	-2872
募乡勇	-2873
募兵告	-2874
募四方	-2875
十年书	-2876
十有八	-2877
单力薄	-2878
占领城	-2879
即便马	-2880
却封显	-2881
压乡里	-2882
原来贵	-2883
去作甚	-2884
去城外	-2885
去看看	-2886
县县尉	-2887
县尉之	-2888
县尉到	-2889
县尉如	-2890
又要胡	-2891
取不妨	-2892
取贿赂	-2893
受制于	-2894
只知逃	-2895
可不能	-2896
可尽知	-2897
吃不成	-2898
各位快	-2899
▁王	-2900
一株	-2901
下杀	-2902
个少	-2903
么取	-2904
人情	-2905
他不	-2906
何进	-2907
你还	-2908
儿七	-2909
兵守	-2910
募乡	-2911
即便	-2912
却只	-2913
垮窦	-2914
官干	-2915
寸功	-2916
尉不	-2917
尉到	-2918
尉吧	-2919
岁在	-2920
州自	-2921
己募	-2922
开磨	-2923
敢诓	-2924
方豪	-2925
无二	-2926
是他	-2927
条汉	-2928
死弟	-2929
汉章	-2930
清正	-2931
烦大	-2932
物与	-2933
独木	-2934
等做	-2935
能挪	-2936
般架	-2937
苍天	-2938
让进	-2939
说呢	-2940
近又	-2941
这三	-2942
造成	-2943
门口	-2944
雄赐	-2945
革裹	-2946
骂也	-2947
鸾凤	-2948
丈夫不	-2949
不出来	-2950
不是我	-2951
丢盔卸	-2952
中一支	-2953
为刘兄	-2954
为刘公	-2955
举磨盘	-2956
之争又	-2957
仗势陷	-2958
众造反	-2959
会二位	-2960
何不能	-2961
先中山	-2962
关某之	-2963
取你狗	-2964
受刘备	-2965
同去投	-2966
同日死	-2967
同日生	-2968
同道合	-2969
名羽字	-2970
向来说	-2971
君一席	-2972
听人说	-2973
告三天	-2974
告四方	-2975
和二年	-2976
喜县便	-2977
喜县小	-2978
嘴皮子	-2979
四方精	-2980
回来了	-2981
因看不	-2982
因祖上	-2983
园三结	-2984
国演义	-2985
图大事	-2986
土地和	-2987
在先了	-2988
在城门	-2989
在战场	-2990
在此长	-2991
坐下说	-2992
坚使人	-2993
堂出手	-2994
壮之士	-2995
壮士俱	-2996
多大功	-2997
大哥你	-2998
大哥做	-2999
18	-3000
一身	-3001
三国	-3002
下做	-3003
下大	-3004
了来	-3005
于他	-3006
今天	-3007
位爷	-3008
你不	-3009
你呀	-3010
俺早	-3011
俺颇	-3012
公啊	-3013
兵告	-3014
县小	-3015
取贿	-3016
受刘	-3017
可乱	-3018
同去	-3019
呀打	-3020
哥做	-3021
大乱	-3022
头来	-3023
家解	-3024
家赔	-3025
就一	-3026
张恨	-3027
强欺	-3028
征剿	-3029
必合	-3030
成功	-3031
我关	-3032
我怎	-3033
戮黄	-3034
效命	-3035
数十	-3036
旁白	-3037
是也	-3038
是买	-3039
是小	-3040
是朝	-3041
有董	-3042
本呢	-3043
来打	-3044
样的	-3045
爆发	-3046
男儿	-3047
空有	-3048
纷争	-3049
统兵	-3050
肉人	-3051
讨猪	-3052
足挂	-3053
钱出	-3054
非打	-3055
黄沙	-3056
了磨盘	-3057
县尉不	-3058
只能落	-3059
国之时	-3060
在原处	-3061
大哥呢	-3062
大小三	-3063
天下豪	-3064
天人共	-3065
天可怜	-3066
天在战	-3067
天子明	-3068
天我非	-3069
天涯漂	-3070
如今他	-3071
如何蓄	-3072
如子啊	-3073
如此一	-3074
如此扎	-3075
如此自	-3076
守刘焉	-3077
官狗仗	-3078
官职不	-3079
官逼民	-3080
室宗亲	-3081
宦官势	-3082
宦官干	-3083
宦官弄	-3084
宰了他	-3085
害刘公	-3086
害百姓	-3087
寸功未	-3088
对县尉	-3089
将二位	-3090
将造成	-3091
尔等做	-3092
就一刀	-3093
就在井	-3094
就在那	-3095
就拿出	-3096
就是了	-3097
就是豆	-3098
尺之躯	-3099
▁义	-3100
与朝	-3101
两个	-3102
中滴	-3103
了都	-3104
些吧	-3105
众臣	-3106
位壮	-3107
你如	-3108
你挪	-3109
你自	-3110
兄之	-3111
冤者	-3112
凭驱	-3113
出安	-3114
去拿	-3115
可胡	-3116
命饶	-3117
和七	-3118
四壁	-3119
围观	-3120
在城	-3121
在眼	-3122
块是	-3123
士俱	-3124
多大	-3125
将二	-3126
尺之	-3127
差请	-3128
底下	-3129
张角	-3130
我一	-3131
择主	-3132
政日	-3133
故作	-3134
日生	-3135
未可	-3136
某有	-3137
桃园	-3138
死一	-3139
民如	-3140
生之	-3141
直接	-3142
管我	-3143
花了	-3144
要胡	-3145
财力	-3146
过这	-3147
还打	-3148
造英	-3149
高举	-3150
不能留	-3151
你是本	-3152
你这个	-3153
姓张名	-3154
就在眼	-3155
尽天下	-3156
尽黄沙	-3157
居何职	-3158
屈身受	-3159
屠夫来	-3160
岁在甲	-3161
岁游学	-3162
州自己	-3163
己募兵	-3164
己去叫	-3165
已二十	-3166
已露微	-3167
师访友	-3168
师震动	-3169
帝玄孙	-3170
常侍得	-3171
平生之	-3172
平生最	-3173
年宦官	-3174
并土地	-3175
幽州地	-3176
幽州太	-3177
庄上饮	-3178
庇护人	-3179
应为国	-3180
底下好	-3181
弃官归	-3182
张怎么	-3183
当丈夫	-3184
当取你	-3185
待怎讲	-3186
徒四壁	-3187
得其良	-3188
得县尉	-3189
得拿钱	-3190
得此官	-3191
得财物	-3192
得遇明	-3193
心为好	-3194
必出贵	-3195
必如此	-3196
必有缘	-3197
必非要	-3198
志同道	-3199
▁百	-3200
不了	-3201
不出	-3202
不早	-3203
与众	-3204
世则	-3205
为刘	-3206
之臣	-3207
之证	-3208
也同	-3209
人呐	-3210
今在	-3211
他那	-3212
以为	-3213
何蓄	-3214
冤的	-3215
凤之	-3216
制于	-3217
取不	-3218
可造	-3219
各位	-3220
命即	-3221
哥呢	-3222
哥秋	-3223
壮之	-3224
天灾	-3225
如杀	-3226
害生	-3227
就拿	-3228
屡立	-3229
席话	-3230
年书	-3231
廷诏	-3232
弃官	-3233
张名	-3234
张怎	-3235
当丈	-3236
往后	-3237
得县	-3238
快来	-3239
怎有	-3240
日又	-3241
明是	-3242
是有	-3243
是某	-3244
有此	-3245
服佩	-3246
来取	-3247
某之	-3248
某平	-3249
毫无	-3250
游学	-3251
看这	-3252
老张	-3253
肉割	-3254
肉是	-3255
肉钱	-3256
良木	-3257
被督	-3258
要屈	-3259
许到	-3260
语之	-3261
读十	-3262
赃枉	-3263
身呐	-3264
这荆	-3265
逐渐	-3266
邮污	-3267
部司	-3268
钱行	-3269
长叹	-3270
非栖	-3271
不敢冒	-3272
卖官鬻	-3273
快从实	-3274
快去叫	-3275
快请快	-3276
怀绝技	-3277
怎不想	-3278
怎么取	-3279
怎么只	-3280
怕买主	-3281
恨不得	-3282
患难与	-3283
您今日	-3284
惯豪强	-3285
想光复	-3286
想招募	-3287
意报告	-3288
愿同年	-3289
愿相随	-3290
愿足矣	-3291
成功啊	-3292
成大事	-3293
成小块	-3294
我不管	-3295
我不能	-3296
我与民	-3297
我为官	-3298
我做的	-3299
不想	-3300
与共	-3301
丝不	-3302
中有	-3303
主儿	-3304
举磨	-3305
了磨	-3306
京师	-3307
们东	-3308
便流	-3309
俺姓	-3310
做得	-3311
兄患	-3312
光复	-3313
共戮	-3314
关名	-3315
分你	-3316
加害	-3317
卓那	-3318
压乡	-3319
原县	-3320
参与	-3321
在何	-3322
在先	-3323
备之	-3324
复祖	-3325
天之	-3326
姓关	-3327
学四	-3328
官清	-3329
官直	-3330
封显	-3331
尉之	-3332
就分	-3333
帝胄	-3334
开市	-3335
强割	-3336
当立	-3337
心为	-3338
怀绝	-3339
患难	-3340
愿相	-3341
报冤	-3342
振家	-3343
掉我	-3344
是到	-3345
曾为	-3346
有缘	-3347
未有	-3348
此人	-3349
此县	-3350
此磨	-3351
清廉	-3352
渝此	-3353
然出	-3354
然刘	-3355
用宦	-3356
的了	-3357
真价	-3358
羽字	-3359
肉已	-3360
良人	-3361
落到	-3362
蒙不	-3363
蓄意	-3364
被削	-3365
让你	-3366
贵为	-3367
邮可	-3368
钱你	-3369
陷害	-3370
领城	-3371
下刘备	-3372
也不敢	-3373
你瞧瞧	-3374
定能成	-3375
对不住	-3376
当不敢	-3377
心中滴	-3378
我关某	-3379
我卖不	-3380
我告诉	-3381
我将他	-3382
我幽州	-3383
我的了	-3384
我看就	-3385
我许多	-3386
战火迅	-3387
戮官吏	-3388
戮黄巾	-3389
所谓择	-3390
打呀打	-3391
打死你	-3392
护人家	-3393
报国家	-3394
择主之	-3395
拿去拿	-3396
按期交	-3397
挟尔等	-3398
挪开磨	-3399
一遭	-3400
下刘	-3401
下如	-3402
下效	-3403
不来	-3404
不枉	-3405
中送	-3406
为生	-3407
之愿	-3408
五岁	-3409
人共	-3410
人就	-3411
人结	-3412
位意	-3413
何罪	-3414
你狗	-3415
到今	-3416
十五	-3417
可当	-3418
合之	-3419
和二	-3420
壮志	-3421
备一	-3422
天可	-3423
夫来	-3424
夫正	-3425
始见	-3426
害忠	-3427
害百	-3428
师访	-3429
帝玄	-3430
帮手	-3431
年正	-3432
廷命	-3433
弟不	-3434
归乡	-3435
得财	-3436
志同	-3437
成大	-3438
成线	-3439
我做	-3440
我大	-3441
找志	-3442
拜为	-3443
敢相	-3444
日且	-3445
明你	-3446
是因	-3447
是在	-3448
是好	-3449
是我	-3450
景帝	-3451
有家	-3452
有理	-3453
有贪	-3454
楼桑	-3455
武之	-3456
流半	-3457
满者	-3458
特意	-3459
王之	-3460
疆场	-3461
的就	-3462
看看	-3463
真不	-3464
知二	-3465
胆照	-3466
胡言	-3467
能留	-3468
艺惊	-3469
苦寻	-3470
见真	-3471
觉义	-3472
说是	-3473
说的	-3474
身怀	-3475
身相	-3476
造次	-3477
道合	-3478
雄真	-3479
雪中	-3480
个别部	-3481
同年同	-3482
境安民	-3483
大哥秋	-3484
天之内	-3485
少在这	-3486
得卖啊	-3487
振家风	-3488
授得此	-3489
掉我许	-3490
接参与	-3491
支族人	-3492
收下吧	-3493
故得此	-3494
故意找	-3495
效命疆	-3496
救了他	-3497
敢冒认	-3498
敢虚报	-3499
一避	-3500
七子	-3501
上报	-3502
下雨	-3503
不足	-3504
中一	-3505
事无	-3506
于楼	-3507
今他	-3508
们两	-3509
何打	-3510
你个	-3511
俗话	-3512
借此	-3513
先中	-3514
出贵	-3515
到了	-3516
十有	-3517
即是	-3518
去爵	-3519
县界	-3520
只恨	-3521
可如	-3522
可我	-3523
合久	-3524
在家	-3525
地方	-3526
坚使	-3527
天要	-3528
好借	-3529
安黎	-3530
定居	-3531
实在	-3532
家不	-3533
已二	-3534
帝第	-3535
帝继	-3536
廷兵	-3537
廷效	-3538
开此	-3539
得杀	-3540
必如	-3541
怎讲	-3542
思上	-3543
愿同	-3544
我不	-3545
打架	-3546
支族	-3547
无妨	-3548
无成	-3549
日死	-3550
时势	-3551
是一	-3552
是汉	-3553
是没	-3554
有按	-3555
杀了	-3556
村即	-3557
来贵	-3558
林哪	-3559
此而	-3560
涿州	-3561
的英	-3562
祖上	-3563
祖先	-3564
等候	-3565
纳酎	-3566
给个	-3567
能空	-3568
论大	-3569
谢上	-3570
这势	-3571
逼县	-3572
里练	-3573
重整	-3574
钱也	-3575
难成	-3576
不是要	-3577
为朝廷	-3578
位更替	-3579
可以任	-3580
数十年	-3581
方百姓	-3582
无有无	-3583
日气象	-3584
日益衰	-3585
早有言	-3586
时域中	-3587
明就里	-3588
春秋之	-3589
是一事	-3590
是上面	-3591
是东汉	-3592
是为何	-3593
是买肉	-3594
是何出	-3595
是听说	-3596
是啊是	-3597
是在下	-3598
是孝景	-3599
下响	-3600
下正	-3601
下黄	-3602
不闻	-3603
东解	-3604
为尔	-3605
之势	-3606
之天	-3607
也曾	-3608
人之	-3609
今黄	-3610
仗人	-3611
任取	-3612
位这	-3613
何吩	-3614
何必	-3615
作此	-3616
出英	-3617
勇守	-3618
匮将	-3619
卑职	-3620
却落	-3621
嘴皮	-3622
图大	-3623
在此	-3624
域中	-3625
孙身	-3626
安喜	-3627
定之	-3628
宦党	-3629
家徒	-3630
小三	-3631
尽知	-3632
州郡	-3633
巾平	-3634
巾猖	-3635
归你	-3636
得家	-3637
想做	-3638
我自	-3639
投军	-3640
据之	-3641
掣肘	-3642
日气	-3643
是白	-3644
是群	-3645
曾虚	-3646
有你	-3647
有宦	-3648
来呢	-3649
此职	-3650
民贼	-3651
现今	-3652
的话	-3653
等俱	-3654
而如	-3655
肘之	-3656
能及	-3657
观二	-3658
讨黄	-3659
话当	-3660
说过	-3661
贫如	-3662
起之	-3663
身受	-3664
还尚	-3665
适时	-3666
那时	-3667
邮再	-3668
郡起	-3669
雄亦	-3670
雄崛	-3671
露微	-3672
非常	-3673
非要	-3674
则必出	-3675
大人为	-3676
定之日	-3677
早有此	-3678
是挪不	-3679
是有钱	-3680
是朝廷	-3681
是条汉	-3682
是汉室	-3683
是没有	-3684
是白身	-3685
是督邮	-3686
是群雄	-3687
是豆粉	-3688
暴打一	-3689
曾为难	-3690
曾听说	-3691
曾虚报	-3692
最后统	-3693
月同日	-3694
有一株	-3695
有何吩	-3696
有何打	-3697
有冤的	-3698
有微功	-3699
一口	-3700
三分	-3701
三结	-3702
上分	-3703
下要	-3704
不开	-3705
不明	-3706
不赔	-3707
个安	-3708
个小	-3709
个杀	-3710
为大	-3711
也是	-3712
五六	-3713
人不	-3714
人为	-3715
仇的	-3716
他暴	-3717
他来	-3718
你卖	-3719
儿呢	-3720
兄给	-3721
入骨	-3722
凡有	-3723
刘县	-3724
卖的	-3725
去城	-3726
县便	-3727
告三	-3728
在井	-3729
处吧	-3730
多猪	-3731
天里	-3732
小吏	-3733
就里	-3734
已有	-3735
店伙	-3736
必害	-3737
怜见	-3738
我与	-3739
我卖	-3740
我告	-3741
我漂	-3742
挟尔	-3743
损公	-3744
据者	-3745
是孝	-3746
是挪	-3747
是用	-3748
本不	-3749
来个	-3750
楚了	-3751
河东	-3752
清楚	-3753
爱结	-3754
百余	-3755
知愚	-3756
磨豆	-3757
私下	-3758
第十	-3759
聋充	-3760
肉就	-3761
肥私	-3762
要害	-3763
要是	-3764
誓与	-3765
诉你	-3766
谢陛	-3767
还告	-3768
这官	-3769
这就	-3770
这磨	-3771
那儿	-3772
邮又	-3773
邮大	-3774
间已	-3775
个绿豆	-3776
争斗愈	-3777
位壮士	-3778
你说的	-3779
守平原	-3780
害忠良	-3781
报国无	-3782
有意报	-3783
有董卓	-3784
有钱你	-3785
有钱行	-3786
朝廷上	-3787
朝廷兵	-3788
朝廷命	-3789
朝廷效	-3790
朝廷无	-3791
朝廷诏	-3792
朝政日	-3793
朝灭亡	-3794
木之禽	-3795
木难成	-3796
未可尽	-3797
本官倒	-3798
本官此	-3799
上逐	-3800
个装	-3801
么鸟	-3802
也一	-3803
井中	-3804
他的	-3805
位英	-3806
你才	-3807
你有	-3808
做个	-3809
军如	-3810
单力	-3811
卖官	-3812
取井	-3813
变成	-3814
只会	-3815
可以	-3816
吃不	-3817
吩咐	-3818
国家	-3819
国效	-3820
土变	-3821
在原	-3822
在饥	-3823
外遛	-3824
大丈	-3825
好乘	-3826
官呐	-3827
官府	-3828
官狗	-3829
定能	-3830
家岂	-3831
家早	-3832
对不	-3833
少在	-3834
己去	-3835
带着	-3836
张屠	-3837
得来	-3838
恐怕	-3839
恶人	-3840
您今	-3841
成了	-3842
手不	-3843
打一	-3844
找棵	-3845
是督	-3846
是谁	-3847
是豆	-3848
是贪	-3849
有言	-3850
期交	-3851
条心	-3852
痛快	-3853
盔卸	-3854
看他	-3855
等卖	-3856
索财	-3857
肉全	-3858
肉啊	-3859
能怎	-3860
自涿	-3861
要叫	-3862
要贿	-3863
该当	-3864
说大	-3865
足矣	-3866
这是	-3867
这第	-3868
进去	-3869
道了	-3870
道说	-3871
那人	-3872
那古	-3873
邮此	-3874
钱财	-3875
频繁	-3876
鬻爵	-3877
一于秦	-3878
中山靖	-3879
你只会	-3880
俺怎么	-3881
合久必	-3882
我三人	-3883
战乱五	-3884
杀了那	-3885
杀人怎	-3886
来买肉	-3887
来了来	-3888
来取肉	-3889
来如此	-3890
枉男儿	-3891
某姓关	-3892
某家相	-3893
某誓与	-3894
栖鸾凤	-3895
株千年	-3896
样得此	-3897
桃园三	-3898
桑村即	-3899
一不	-3900
一人	-3901
上堆	-3902
下恶	-3903
不为	-3904
个臭	-3905
么天	-3906
么绿	-3907
义二	-3908
争雄	-3909
事定	-3910
人恶	-3911
你几	-3912
你同	-3913
你钱	-3914
你难	-3915
便好	-3916
俺与	-3917
俺怎	-3918
俺知	-3919
八代	-3920
十余	-3921
千年	-3922
即由	-3923
去无	-3924
去走	-3925
又待	-3926
和帝	-3927
处啊	-3928
夫不	-3929
实招	-3930
室宗	-3931
家出	-3932
家相	-3933
将他	-3934
尽天	-3935
州地	-3936
年古	-3937
当如	-3938
待我	-3939
恨不	-3940
我非	-3941
找茬	-3942
捏你	-3943
故意	-3944
是个	-3945
是雪	-3946
朝灭	-3947
杀人	-3948
杀尽	-3949
来说	-3950
某打	-3951
正当	-3952
猪的	-3953
王县	-3954
的买	-3955
的这	-3956
真的	-3957
知什	-3958
窝囊	-3959
窦太	-3960
而得	-3961
许多	-3962
豆便	-3963
走走	-3964
还曾	-3965
这涿	-3966
这督	-3967
送掉	-3968
遛遛	-3969
那村	-3970
邮放	-3971
饶你	-3972
不是他	-3973
个在家	-3974
为国效	-3975
举荐他	-3976
什么呀	-3977
但凭驱	-3978
天下响	-3979
家解良	-3980
少一个	-3981
我们要	-3982
找茬儿	-3983
是贪官	-3984
棘丛中	-3985
棵大树	-3986
楚了吗	-3987
横征暴	-3988
次就是	-3989
欲同你	-3990
欺君罔	-3991
正好借	-3992
正是用	-3993
此一避	-3994
此亡命	-3995
此县尉	-3996
此磨盘	-3997
此肉已	-3998
此肉是	-3999
个别	-4000
么呀	-4001
了个	-4002
人家	-4003
仗势	-4004
你拿	-4005
凭什	-4006
听人	-4007
堂出	-4008
家必	-4009
封了	-4010
小的	-4011
少一	-4012
幸会	-4013
庇护	-4014
怎的	-4015
成千	-4016
棘丛	-4017
此扎	-4018
的县	-4019
立了	-4020
等害	-4021
那孙	-4022
郡自	-4023
之躯即	-4024
到城外	-4025
武之时	-4026
死一个	-4027
死亡线	-4028
死人了	-4029
残害生	-4030
毒百姓	-4031
毫无犯	-4032
民如子	-4033
民百姓	-4034
民秋毫	-4035
求同年	-4036
汉之争	-4037
汉和帝	-4038
没有劣	-4039
没有按	-4040
没有索	-4041
涿州县	-4042
涿郡起	-4043
渝此言	-4044
漂流半	-4045
点什么	-4046
烦大哥	-4047
焚烧官	-4048
然出手	-4049
爱结交	-4050
特意赶	-4051
狗仗人	-4052
猪肉钱	-4053
玄孙身	-4054
王之后	-4055
理你等	-4056
生死弟	-4057
生死相	-4058
用宦官	-4059
由此而	-4060
百姓在	-4061
的买卖	-4062
的县尉	-4063
的就是	-4064
的开始	-4065
的报冤	-4066
的汉和	-4067
的祖先	-4068
的绿豆	-4069
的英雄	-4070
的饥饿	-4071
皆可当	-4072
目下正	-4073
直接参	-4074
真不痛	-4075
督邮再	-4076
督邮分	-4077
督邮又	-4078
督邮可	-4079
督邮大	-4080
督邮威	-4081
督邮放	-4082
督邮有	-4083
督邮此	-4084
督邮污	-4085
知二位	-4086
知什么	-4087
知忠义	-4088
知愚民	-4089
私之证	-4090
空怀壮	-4091
空有一	-4092
窦太后	-4093
立大功	-4094
竟为谁	-4095
等俱是	-4096
等害民	-4097
管我们	-4098
索财物	-4099
纳酎金	-4100
线上挣	-4101
经大小	-4102
结交朝	-4103
结拜为	-4104
给我一	-4105
给我割	-4106
绝无二	-4107
绝无此	-4108
统兵征	-4109
绿豆便	-4110
群雄崛	-4111
群雄并	-4112
群雄逐	-4113
老本了	-4114
而如此	-4115
而最后	-4116
聋充哑	-4117
职铭记	-4118
肉全归	-4119
肉割成	-4120
肘之故	-4121
肥私之	-4122
胆照人	-4123
能怎样	-4124
能挪开	-4125
致使平	-4126
般架子	-4127
艺惊人	-4128
苍天已	-4129
苦寻找	-4130
英雄亦	-4131
英雄现	-4132
英雄真	-4133
英雄赐	-4134
萍水相	-4135
落得天	-4136
落得家	-4137
董卓那	-4138
蒙不弃	-4139
蓄意加	-4140
虚报功	-4141
虽一介	-4142
行不善	-4143
表刘备	-4144
被督邮	-4145
要下雨	-4146
要亲自	-4147
要心疼	-4148
要清理	-4149
要贿赂	-4150
见真金	-4151
观二位	-4152
觉义气	-4153
解良人	-4154
言语之	-4155
讨黄巾	-4156
让俺老	-4157
许猪肉	-4158
论大小	-4159
诈取钱	-4160
诏令各	-4161
话又说	-4162
话当真	-4163
该当何	-4164
说一不	-4165
读十年	-4166
谢玄德	-4167
豪强割	-4168
豪强横	-4169
豪强欺	-4170
财力不	-4171
财物与	-4172
货真价	-4173
贪官污	-4174
贫如洗	-4175
贵为帝	-4176
贼咬一	-4177
贼安民	-4178
贿赂十	-4179
赃枉法	-4180
赔上老	-4181
赔本不	-4182
赔本呢	-4183
起义军	-4184
起之时	-4185
身本领	-4186
身相伴	-4187
过这样	-4188
近又犯	-4189
还告诉	-4190
还打人	-4191
还敢嘴	-4192
还是小	-4193
还是磨	-4194
还曾听	-4195
还须派	-4196
这三天	-4197
这不是	-4198
这个臭	-4199
这有何	-4200
这磨盘	-4201
这荆棘	-4202
进去为	-4203
连年天	-4204
适时耶	-4205
逐鹿亭	-4206
速蔓延	-4207
造它的	-4208
造英雄	-4209
逼县吏	-4210
避追捕	-4211
那人是	-4212
那副模	-4213
那古桑	-4214
郡守备	-4215
酒叙谈	-4216
里百姓	-4217
里练嘴	-4218
重整旧	-4219
钱也不	-4220
钱出来	-4221
铤而走	-4222
长大将	-4223
问三位	-4224
间已露	-4225
难大哥	-4226
非常人	-4227
面为官	-4228
革裹尸	-4229
颇有家	-4230
飞字翼	-4231
饥饿与	-4232
饥饿人	-4233
饶你一	-4234
骂也不	-4235
骗上差	-4236
骨三分	-4237
高举义	-4238
高冠大	-4239
黄土变	-4240
黄天当	-4241
黄巾势	-4242
黄巾大	-4243
黄巾平	-4244
黄巾欺	-4245
黄巾猖	-4246
黄巾起	-4247
黄巾造	-4248
一个杀猪	-4249
一举击垮	-4250
一刀一枪	-4251
一怒之下	-4252
七尺之躯	-4253
丈夫正当	-4254
三人一条	-4255
三人为躲	-4256
三弟不可	-4257
上可得找	-4258
上行而下	-4259
上面为官	-4260
下好乘凉	-4261
不为国家	-4262
不可乱动	-4263
不得不反	-4264
不快去叫	-4265
不是他私	-4266
不是我们	-4267
不是来了	-4268
不是结交	-4269
不能留着	-4270
与公同举	-4271
且有宦党	-4272
且饶你一	-4273
东家早有	-4274
东家赔本	-4275
个在家等	-4276
个安喜县	-4277
个小小的	-4278
个杀猪的	-4279
为何不能	-4280
为兄给他	-4281
为国效力	-4282
为大丈夫	-4283
为尔等做	-4284
为生死弟	-4285
为谁人之	-4286
为防州府	-4287
之不周密	-4288
之命即是	-4289
之有理呀	-4290
买卖的还	-4291
乱五百余	-4292
了多少钱	-4293
了那么多	-4294
争战乱五	-4295
二位到我	-4296
二位意下	-4297
二位这样	-4298
于在光和	-4299
于楼桑村	-4300
五岁游学	-4301
亡线上挣	-4302
人贵为帝	-4303
什么名字	-4304
什么天下	-4305
今天我非	-4306
今日恐怕	-4307
从此亡命	-4308
他已二十	-4309
他暴打一	-4310
他私下要	-4311
他能怎样	-4312
令各州郡	-4313
会来找你	-4314
会诈取钱	-4315
位更替频	-4316
何不早说	-4317
何人举荐	-4318
何出身呐	-4319
何必非要	-4320
作此长叹	-4321
你仗势陷	-4322
你做此官	-4323
你分你就	-4324
你带着俺	-4325
你是卖肉	-4326
你是来打	-4327
你是来讨	-4328
你是汉室	-4329
你有何吩	-4330
你瞧瞧他	-4331
你这个人	-4332
侍得来的	-4333
依大将军	-4334
便是东汉	-4335
俺怎么干	-4336
做点什么	-4337
八代玄孙	-4338
公孙瓒表	-4339
公救命啊	-4340
公肥私之	-4341
关名羽字	-4342
关某之命	-4343
关某之躯	-4344
关某在老	-4345
其中一支	-4346
再也不敢	-4347
几个绿豆	-4348
出安喜县	-4349
出来了吗	-4350
分明你才	-4351
分明是在	-4352
刘兄不必	-4353
刘兄之命	-4354
刘兄你说	-4355
刘县尉到	-4356
刘虞帐下	-4357
别烦大哥	-4358
到了这第	-4359
削去爵位	-4360
势单力薄	-4361
势造英雄	-4362
千上万的	-4363
卑职铭记	-4364
单丝不成	-4365
即为刘兄	-4366
即由此而	-4367
却落得家	-4368
厮也是条	-4369
去为刘公	-4370
去看看吧	-4371
县尉不满	-4372
县尉如此	-4373
又统一于	-4374
又被督邮	-4375
发了黄巾	-4376
取井中肉	-4377
只能落得	-4378
叫你自己	-4379
可不能走	-4380
可曾为难	-4381
吃不成了	-4382
同你二人	-4383
同月同日	-4384
名飞字翼	-4385
向来说一	-4386
听君一席	-4387
告诉你呀	-4388
告诉你拿	-4389
命饶命啊	-4390
和连年天	-4391
喜县小小	-4392
因力不能	-4393
因看不惯	-4394
园三结义	-4395
土地和连	-4396
在此长叹	-4397
在这三天	-4398
地方豪强	-4399
块是我的	-4400
城外遛遛	-4401
多亏三位	-4402
大丈夫不	-4403
大哥你说	-4404
大哥秋毫	-4405
大将军窦	-4406
大小三十	-4407
天子明诏	-4408
如今他已	-4409
如今在下	-4410
如杀了他	-4411
如此一来	-4412
如此扎手	-4413
姓张名飞	-4414
威逼县吏	-4415
孙坚使人	-4416
孝景帝第	-4417
安喜县便	-4418
官职不论	-4419
宦官势力	-4420
宦官干政	-4421
害刘公啊	-4422
将统兵征	-4423
将肉割成	-4424
将造成地	-4425
小人不敢	-4426
尚未可尽	-4427
就在井里	-4428
就少在这	-4429
尽天下恶	-4430
尽黄沙始	-4431
屈身受制	-4432
岂不是好	-4433
岂不是要	-4434
已露微辞	-4435
布告四方	-4436
帐下做了	-4437
幽州太守	-4438
庄上饮酒	-4439
张屠夫来	-4440
得此县尉	-4441
必出贵人	-4442
快坐下说	-4443
快快从实	-4444
怎么取肉	-4445
怎么只做	-4446
怎样得此	-4447
怕买主儿	-4448
思上报国	-4449
恨不得杀	-4450
恨财力不	-4451
恶人恶鬼	-4452
意找茬儿	-4453
我为官清	-4454
我去城外	-4455
我大哥做	-4456
我看就该	-4457
我等俱是	-4458
我自涿郡	-4459
所谓择木	-4460
才举磨盘	-4461
打死一个	-4462
打的就是	-4463
招募乡勇	-4464
招募四方	-4465
按期交纳	-4466
挪不开这	-4467
授得此职	-4468
放在原处	-4469
效命疆场	-4470
敢问三位	-4471
方豪强割	-4472
早就一刀	-4473
早有此意	-4474
时域中竟	-4475
是也不是	-4476
是买肉的	-4477
是到了这	-4478
是孝景帝	-4479
是要亲自	-4480
曾听人说	-4481
曾听说过	-4482
最爱结交	-4483
有五六年	-4484
有仇的报	-4485
有对县尉	-4486
有钱也不	-4487
有钱你就	-4488
有钱行贿	-4489
朝廷命官	-4490
朝政日益	-4491
木难成林	-4492
末年宦官	-4493
本县县尉	-4494
本官倒要	-4495
本当取你	-4496
杀猪的这	-4497
村中有一	-4498
来个装聋	-4499
果然出手	-4500
某家相送	-4501
某誓与兄	-4502
查上一查	-4503
棵大树哇	-4504
楚汉之争	-4505
楼桑村即	-4506
横征暴敛	-4507
欺压乡里	-4508
欺君罔上	-4509
此次就是	-4510
此行不善	-4511
没有索取	-4512
河东解良	-4513
涿州县界	-4514
涿郡起兵	-4515
清理你等	-4516
渐重整旧	-4517
漂流半生	-4518
然刘县尉	-4519
然敢冒认	-4520
猪肉钱呢	-4521
玄孙身上	-4522
玄德公大	-4523
瓒表刘备	-4524
甚觉义气	-4525
用武之时	-4526
的报冤呐	-4527
皆为朝廷	-4528
皆可当堂	-4529
目下正值	-4530
督邮分明	-4531
督邮放告	-4532
私之证据	-4533
秦朝灭亡	-4534
竟为谁人	-4535
章和二年	-4536
等害民贼	-4537
精壮之士	-4538
终是一事	-4539
经是我的	-4540
结交天下	-4541
给我割肉	-4542
继位之后	-4543
绿豆便要	-4544
群雄崛起	-4545
群雄逐鹿	-4546
胜读十年	-4547
自募乡勇	-4548
自己募兵	-4549
苦苦寻找	-4550
英雄亦适	-4551
英雄现居	-4552
落到了这	-4553
落得天涯	-4554
蓄意加害	-4555
装聋充哑	-4556
要赔上老	-4557
要进去为	-4558
见了募兵	-4559
言在先了	-4560
言语之间	-4561
让我做的	-4562
诓骗上差	-4563
说大丈夫	-4564
请受刘备	-4565
谁能挪开	-4566
豪强欺压	-4567
财物与他	-4568
贪官污吏	-4569
贪赃枉法	-4570
贵人就在	-4571
贿赂十常	-4572
迅速蔓延	-4573
过这样的	-4574
还告诉你	-4575
还敢虚报	-4576
还是小心	-4577
还有董卓	-4578
这话又说	-4579
逐鹿亭侯	-4580
造它的反	-4581
那个督邮	-4582
那人是谁	-4583
那副模样	-4584
那天在战	-4585
郡守备之	-4586
都是上面	-4587
重振家风	-4588
长大将军	-4589
雪中送炭	-4590
靖王之后	-4591
颇有家资	-4592
饥饿与死	-4593
饥饿人民	-4594
鸟官狗仗	-4595
黄巾大小	-4596
黄巾平定	-4597
黄巾猖獗	-4598
黄巾造反	-4599
万岁万万岁	-4600
三人为躲避	-4601
三弟不可胡	-4602
上可得找棵	-4603
不快去叫他	-4604
不敢当不敢	-4605
不是他私下	-4606
不是我们救	-4607
不是来了吗	-4608
与兄患难与	-4609
且有宦党掣	-4610
且饶你一遭	-4611
东家岂不是	-4612
两个在家等	-4613
个别部司马	-4614
为何不能拿	-4615
为别部司马	-4616
为汉室宗亲	-4617
义军焚烧官	-4618
之下杀了那	-4619
之地方豪强	-4620
也同去投军	-4621
也颇知忠义	-4622
乱世则必出	-4623
争战乱五百	-4624
二位到我庄	-4625
二位壮士俱	-4626
二位英雄真	-4627
二位英雄赐	-4628
二位这样的	-4629
亡线上挣扎	-4630
人贵为帝胄	-4631
今日在城门	-4632
今日恐怕吃	-4633
今黄巾造反	-4634
他没有索取	-4635
他私下要挟	-4636
令各州自己	-4637
会二位壮士	-4638
会诈取钱财	-4639
位快来取肉	-4640
位更替频繁	-4641
你做此官呐	-4642
你几个绿豆	-4643
你分你就分	-4644
你同去投军	-4645
你是来买肉	-4646
你等卖官鬻	-4647
你还敢虚报	-4648
使平民百姓	-4649
侍得来的官	-4650
便马革裹尸	-4651
俺老张怎么	-4652
做买卖的还	-4653
做得此县尉	-4654
做点什么事	-4655
兄长大将军	-4656
先中山靖王	-4657
关某虽一介	-4658
其后数十年	-4659
内天下响应	-4660
再也不敢了	-4661
击垮窦太后	-4662
分明你才是	-4663
分明是在故	-4664
刘县尉到任	-4665
刘县尉如此	-4666
势陷害忠良	-4667
十八代玄孙	-4668
去投军如何	-4669
县尉不满者	-4670
又犯我幽州	-4671
古桑庇护人	-4672
只能空怀壮	-4673
可不能走啊	-4674
名飞字翼德	-4675
告诉你拿不	-4676
因力不能及	-4677
因祖上逐鹿	-4678
在下面为官	-4679
在老家解良	-4680
在这里练嘴	-4681
在饥饿与死	-4682
大事定能成	-4683
大人为尔等	-4684
大树底下好	-4685
如此一来呢	-4686
威逼县吏要	-4687
孙坚使人情	-4688
孝景帝第七	-4689
安喜县小小	-4690
寻找志同道	-4691
将统兵征剿	-4692
尽黄沙始见	-4693
居于楼桑村	-4694
岂不是好帮	-4695
已经是我的	-4696
常思上报国	-4697
干政的开始	-4698
平生之愿足	-4699
恨不得杀尽	-4700
恨财力不足	-4701
想光复祖业	-4702
意报告从军	-4703
愿与公同举	-4704
愿同年同月	-4705
成千上万的	-4706
成地方豪强	-4707
我去城外遛	-4708
我将他暴打	-4709
我看这荆棘	-4710
我许多猪肉	-4711
打死一个少	-4712
打死你不可	-4713
打的就是你	-4714
护人家必出	-4715
拿出来了吗	-4716
挪开了磨盘	-4717
接参与朝政	-4718
方豪强割据	-4719
早就一刀宰	-4720
是汉室宗亲	-4721
是没有劣迹	-4722
最后统一于	-4723
有一身本领	-4724
有五六年了	-4725
有钱也不给	-4726
有钱你就得	-4727
木难成林哪	-4728
本县县尉吧	-4729
杀猪的这般	-4730
枉男儿七尺	-4731
某向来说一	-4732
栖鸾凤之地	-4733
株千年古桑	-4734
正好借此一	-4735
正所谓择木	-4736
此次就是要	-4737
此肉是某家	-4738
此行不善呐	-4739
民秋毫无犯	-4740
求同年同月	-4741
汉和帝继位	-4742
流落到了这	-4743
渐重整旧日	-4744
爆发了黄巾	-4745
玄德公大恩	-4746
的那人是谁	-4747
督邮分明是	-4748
私之证据者	-4749
立了那么多	-4750
管我们东家	-4751
终于在光和	-4752
终是一事无	-4753
结拜为生死	-4754
要叫你自己	-4755
要屈身受制	-4756
诏令各州郡	-4757
谁能挪开此	-4758
赔本不赔本	-4759
轰出安喜县	-4760
还不是结交	-4761
还尚未可尽	-4762
这便是东汉	-4763
这厮也是条	-4764
这话又说回	-4765
那时域中竟	-4766
那村中有一	-4767
郡自募乡勇	-4768
一枪效命疆场	-4769
丈夫正当如此	-4770
三位英雄现居	-4771
不知二位意下	-4772
与你同去投军	-4773
与兄患难与共	-4774
且有宦党掣肘	-4775
东汉末年宦官	-4776
两个在家等候	-4777
个小小的县尉	-4778
为谁人之天下	-4779
义军焚烧官府	-4780
之下杀了那厮	-4781
之内天下响应	-4782
之命即是刘兄	-4783
之躯即为刘兄	-4784
二位壮士俱身	-4785
二位英雄真是	-4786
二位英雄赐予	-4787
五岁游学四方	-4788
什么天下大事	-4789
什么鸟官狗仗	-4790
今日又被督邮	-4791
他为别部司马	-4792
他已二十有八	-4793
以任取井中肉	-4794
你是怎样得此	-4795
你是来讨猪肉	-4796
你竟然敢冒认	-4797
便流落到了这	-4798
俺老张怎么干	-4799
关名羽字云长	-4800
兼并土地和连	-4801
到了这第十八	-4802
到我庄上饮酒	-4803
加之地方豪强	-4804
却落得家徒四	-4805
原来贵人就在	-4806
可曾为难大哥	-4807
同你二人结拜	-4808
同去投军如何	-4809
听说过这样的	-4810
因看不惯豪强	-4811
在是没有劣迹	-4812
大丈夫不为国	-4813
大哥秋毫无犯	-4814
威逼县吏要害	-4815
孝景帝第七子	-4816
安喜县小小的	-4817
就该造它的反	-4818
州府郡守备之	-4819
已经是我的了	-4820
帐下做了都尉	-4821
平生之愿足矣	-4822
待我将他暴打	-4823
您今日恐怕吃	-4824
我们东家早有	-4825
我们东家赔本	-4826
我们要进去为	-4827
我告诉你拿不	-4828
招募四方精壮	-4829
按期交纳酎金	-4830
挪不开这磨盘	-4831
方豪强割据之	-4832
最后又统一于	-4833
本官倒要查上	-4834
楼桑村即由此	-4835
欺压乡里百姓	-4836
派将统兵征剿	-4837
淘尽黄沙始见	-4838
清理你等贪官	-4839
玄德公大恩呐	-4840
瓒表刘备前功	-4841
的还怕买主儿	-4842
瞧他那副模样	-4843
第十八代玄孙	-4844
纷争战乱五百	-4845
结交天下豪杰	-4846
给他来个装聋	-4847
绿豆便要心疼	-4848
群雄崛起之时	-4849
致使平民百姓	-4850
落得天涯漂泊	-4851
要不是我们救	-4852
要赔上老本了	-4853
言语之间已露	-4854
诏令各州自己	-4855
逐渐重整旧日	-4856
都是上面让我	-4857
非打死你不可	-4858
不得杀尽天下恶	-4859
举荐你做此官呐	-4860
也不枉男儿七尺	-4861
二人结拜为生死	-4862
二位壮士俱身怀	-4863
二位英雄真是雪	-4864
他私下要挟尔等	-4865
你们东家岂不是	-4866
做得此县尉之职	-4867
像你二位这样的	-4868
分明是在故意找	-4869
刘县尉如此自信	-4870
刘备三人为躲避	-4871
到了这涿州县界	-4872
十常侍得来的官	-4873
又犯我幽州地界	-4874
及其兄长大将军	-4875
听说过这样的话	-4876
在下面为官容易	-4877
在这里练嘴皮子	-4878
在饥饿与死亡线	-4879
实在是没有劣迹	-4880
应诏令各州自己	-4881
愿同年同月同日	-4882
成千上万的饥饿	-4883
护人家必出贵人	-4884
方豪强横征暴敛	-4885
最后又统一于汉	-4886
朝廷上可得找棵	-4887
本官此次就是要	-4888
杀猪的这般架子	-4889
求同年同月同日	-4890
督邮大人为尔等	-4891
经大小三十余战	-4892
诏令各州郡自募	-4893
那村中有一株千	-4894
三位英雄现居何职	-4895
不求同年同月同日	-4896
为防州府郡守备之	-4897
之躯即为刘兄之躯	-4898
二位英雄赐予刘备	-4899
但愿同年同月同日	-4900
你管我们东家赔本	-4901
关某之命即是刘兄	-4902
到我庄上饮酒叙谈	-4903
十岁的汉和帝继位	-4904
只做个小小的县尉	-4905
安喜县小小的县尉	-4906
寻找志同道合之人	-4907
必将造成地方豪强	-4908
我们东家早有言在	-4909
我告诉你拿不出来	-4910
督邮威逼县吏要害	-4911
第十八代玄孙身上	-4912
给他来个装聋充哑	-4913
要屈身受制于他人	-4914
那时域中竟为谁人	-4915
黄巾大小三十余战	-4916
东汉末年宦官干政的	-4917
二人结拜为生死弟兄	-4918
分明是在故意找茬儿	-4919
就是要清理你等贪官	-4920
岂不是要赔上老本了	-4921
朝廷诏令各州郡自募	-4922
百姓在饥饿与死亡线	-4923
不得杀尽天下恶人恶鬼	-4924
不惯豪强欺压乡里百姓	-4925
那个督邮威逼县吏要害	-4926
,	-4927
▁	-4928
:	-4929
。	-4930
刘	-4931
不	-4932
是	-4933
张	-4934
你	-4935
备	-4936
大	-4937
关	-4938
飞	-4939
人	-4940
羽	-4941
我	-4942
督	-4943
邮	-4944
这	-4945
有	-4946
了	-4947
?	-4948
一	-4949
之	-4950
啊	-4951
在	-4952
来	-4953
下	-4954
的	-4955
为	-4956
官	-4957
此	-4958
天	-4959
何	-4960
请	-4961
三	-4962
上	-4963
二	-4964
他	-4965
县	-4966
同	-4967
命	-4968
就	-4969
得	-4970
说	-4971
.	-4972
位	-4973
呀	-4974
肉	-4975
年	-4976
哥	-4977
如	-4978
无	-4979
还	-4980
个	-4981
俺	-4982
去	-4983
可	-4984
小	-4985
某	-4986
民	-4987
能	-4988
要	-4989
计	-4990
那	-4991
也	-4992
伙	-4993
出	-4994
好	-4995
帝	-4996
店	-4997
日	-4998
么	-4999
今	-5000
姓	-5001
家	-5002
快	-5003
挪	-5004
敢	-5005
汉	-5006
!	-5007
分	-5008
吏	-5009
弟	-5010
打	-5011
百	-5012
雄	-5013
黄	-5014
与	-5015
义	-5016
军	-5017
后	-5018
子	-5019
尉	-5020
怎	-5021
拿	-5022
朝	-5023
死	-5024
走	-5025
钱	-5026
中	-5027
买	-5028
公	-5029
十	-5030
吧	-5031
岁	-5032
开	-5033
当	-5034
成	-5035
样	-5036
爷	-5037
真	-5038
豆	-5039
饶	-5040
万	-5041
事	-5042
兄	-5043
卖	-5044
又	-5045
只	-5046
告	-5047
必	-5048
生	-5049
知	-5050
给	-5051
身	-5052
什	-5053
做	-5054
力	-5055
功	-5056
取	-5057
呐	-5058
士	-5059
壮	-5060
夫	-5061
害	-5062
将	-5063
巾	-5064
本	-5065
杀	-5066
正	-5067
相	-5068
等	-5069
者	-5070
自	-5071
话	-5072
东	-5073
便	-5074
兵	-5075
到	-5076
势	-5077
呢	-5078
廷	-5079
报	-5080
故	-5081
玄	-5082
王	-5083
老	-5084
职	-5085
英	-5086
起	-5087
难	-5088
举	-5089
亲	-5090
们	-5091
众	-5092
儿	-5093
反	-5094
叫	-5095
哎	-5096
国	-5097
守	-5098
安	-5099
州	-5100
已	-5101
意	-5102
愿	-5103
战	-5104
救	-5105
方	-5106
时	-5107
明	-5108
月	-5109
犯	-5110
白	-5111
看	-5112
磨	-5113
秋	-5114
造	-5115
(	-5116
)	-5117
乱	-5118
于	-5119
从	-5120
但	-5121
别	-5122
募	-5123
原	-5124
名	-5125
听	-5126
地	-5127
坐	-5128
字	-5129
孙	-5130
宦	-5131
平	-5132
德	-5133
心	-5134
手	-5135
桑	-5136
毫	-5137
猪	-5138
盘	-5139
立	-5140
粉	-5141
而	-5142
言	-5143
让	-5144
进	-5145
道	-5146
里	-5147
长	-5148
马	-5149
七	-5150
丈	-5151
主	-5152
乡	-5153
争	-5154
五	-5155
佩	-5156
其	-5157
即	-5158
却	-5159
吗	-5160
和	-5161
四	-5162
城	-5163
处	-5164
多	-5165
宗	-5166
室	-5167
对	-5168
少	-5169
应	-5170
想	-5171
找	-5172
效	-5173
旁	-5174
早	-5175
曾	-5176
服	-5177
村	-5178
查	-5179
没	-5180
清	-5181
灵	-5182
然	-5183
狗	-5184
着	-5185
第	-5186
结	-5187
良	-5188
行	-5189
见	-5190
角	-5191
豪	-5192
财	-5193
贵	-5194
贼	-5195
贿	-5196
郡	-5197
非	-5198
8	-5199
;	-5200
、	-5201
且	-5202
亡	-5203
交	-5204
令	-5205
以	-5206
会	-5207
住	-5208
余	-5209
使	-5210
冤	-5211
割	-5212
剿	-5213
劣	-5214
卓	-5215
厮	-5216
古	-5217
各	-5218
合	-5219
哪	-5220
因	-5221
块	-5222
孝	-5223
定	-5224
实	-5225
客	-5226
尽	-5227
屠	-5228
山	-5229
岂	-5230
差	-5231
常	-5232
干	-5233
并	-5234
强	-5235
微	-5236
怕	-5237
戮	-5238
投	-5239
招	-5240
放	-5241
政	-5242
既	-5243
景	-5244
最	-5245
木	-5246
未	-5247
树	-5248
楼	-5249
武	-5250
求	-5251
涿	-5252
爱	-5253
甲	-5254
皆	-5255
祖	-5256
索	-5257
终	-5258
绝	-5259
统	-5260
绿	-5261
群	-5262
落	-5263
董	-5264
观	-5265
讨	-5266
许	-5267
诉	-5268
诏	-5269
谁	-5270
谢	-5271
贪	-5272
赂	-5273
赔	-5274
足	-5275
躯	-5276
迹	-5277
送	-5278
逐	-5279
部	-5280
都	-5281
金	-5282
靖	-5283
面	-5284
顾	-5285
领	-5286
颇	-5287
1	-5288
世	-5289
久	-5290
云	-5291
井	-5292
些	-5293
仅	-5294
仇	-5295
仗	-5296
任	-5297
作	-5298
依	-5299
俱	-5300
元	-5301
先	-5302
光	-5303
八	-5304
共	-5305
冒	-5306
凡	-5307
凭	-5308
击	-5309
刀	-5310
前	-5311
加	-5312
动	-5313
勇	-5314
千	-5315
单	-5316
及	-5317
受	-5318
口	-5319
司	-5320
叹	-5321
吉	-5322
君	-5323
响	-5324
哼	-5325
唉	-5326
喜	-5327
喽	-5328
嘴	-5329
围	-5330
图	-5331
土	-5332
场	-5333
外	-5334
太	-5335
失	-5336
妨	-5337
始	-5338
寻	-5339
封	-5340
尔	-5341
居	-5342
己	-5343
市	-5344
布	-5345
师	-5346
幽	-5347
府	-5348
弃	-5349
归	-5350
往	-5351
征	-5352
待	-5353
志	-5354
忠	-5355
怀	-5356
恨	-5357
恶	-5358
憋	-5359
才	-5360
扎	-5361
拜	-5362
择	-5363
据	-5364
敬	-5365
暴	-5366
条	-5367
枉	-5368
架	-5369
楚	-5370
次	-5371
欲	-5372
欺	-5373
残	-5374
气	-5375
污	-5376
流	-5377
漂	-5378
爵	-5379
物	-5380
现	-5381
理	-5382
甚	-5383
用	-5384
界	-5385
皇	-5386
目	-5387
直	-5388
瞧	-5389
私	-5390
秦	-5391
空	-5392
窦	-5393
竟	-5394
管	-5395
线	-5396
经	-5397
胆	-5398
胡	-5399
臣	-5400
苍	-5401
苦	-5402
荐	-5403
虚	-5404
被	-5405
解	-5406
认	-5407
该	-5408
读	-5409
辞	-5410
逼	-5411
遛	-5412
避	-5413
酒	-5414
重	-5415
门	-5416
间	-5417
陛	-5418
随	-5419
饥	-5420
饿	-5421
高	-5422
鹿	-5423
*	-5424
4	-5425
《	-5426
》	-5427
业	-5428
丛	-5429
丝	-5430
丢	-5431
两	-5432
乃	-5433
乏	-5434
乘	-5435
书	-5436
予	-5437
亏	-5438
亦	-5439
京	-5440
亭	-5441
介	-5442
代	-5443
价	-5444
伴	-5445
侍	-5446
侯	-5447
俗	-5448
保	-5449
信	-5450
倒	-5451
候	-5452
借	-5453
值	-5454
像	-5455
充	-5456
党	-5457
入	-5458
全	-5459
六	-5460
兼	-5461
内	-5462
再	-5463
冠	-5464
冲	-5465
准	-5466
凉	-5467
几	-5468
凤	-5469
则	-5470
利	-5471
制	-5472
削	-5473
副	-5474
勒	-5475
匮	-5476
半	-5477
卑	-5478
占	-5479
印	-5480
卸	-5481
历	-5482
压	-5483
参	-5484
友	-5485
发	-5486
变	-5487
叙	-5488
吃	-5489
向	-5490
吩	-5491
周	-5492
咐	-5493
咬	-5494
哇	-5495
哑	-5496
善	-5497
嘛	-5498
囊	-5499
回	-5500
园	-5501
坚	-5502
垮	-5503
域	-5504
堂	-5505
堆	-5506
境	-5507
壁	-5508
复	-5509
头	-5510
奉	-5511
奏	-5512
威	-5513
季	-5514
学	-5515
它	-5516
宰	-5517
容	-5518
密	-5519
寸	-5520
尚	-5521
尸	-5522
尺	-5523
屈	-5524
屡	-5525
崛	-5526
帐	-5527
带	-5528
席	-5529
帮	-5530
幸	-5531
庄	-5532
庇	-5533
底	-5534
廉	-5535
延	-5536
建	-5537
弄	-5538
徒	-5539
忘	-5540
怒	-5541
怜	-5542
思	-5543
恐	-5544
恩	-5545
患	-5546
您	-5547
情	-5548
惊	-5549
惯	-5550
愈	-5551
愚	-5552
所	-5553
技	-5554
护	-5555
挂	-5556
按	-5557
挟	-5558
挣	-5559
振	-5560
捏	-5561
捕	-5562
损	-5563
授	-5564
掉	-5565
掣	-5566
接	-5567
支	-5568
收	-5569
教	-5570
敛	-5571
数	-5572
整	-5573
斗	-5574
族	-5575
旗	-5576
旧	-5577
易	-5578
春	-5579
显	-5580
更	-5581
替	-5582
期	-5583
末	-5584
权	-5585
杰	-5586
林	-5587
果	-5588
枪	-5589
栖	-5590
株	-5591
桃	-5592
桓	-5593
棘	-5594
棵	-5595
模	-5596
横	-5597
殇	-5598
毒	-5599
比	-5600
水	-5601
江	-5602
沙	-5603
河	-5604
泊	-5605
法	-5606
泪	-5607
洗	-5608
派	-5609
涯	-5610
淘	-5611
渐	-5612
渝	-5613
游	-5614
湖	-5615
满	-5616
滴	-5617
演	-5618
火	-5619
灭	-5620
灾	-5621
炭	-5622
点	-5623
烈	-5624
烦	-5625
烧	-5626
焉	-5627
焚	-5628
照	-5629
爆	-5630
特	-5631
独	-5632
猖	-5633
獗	-5634
瓒	-5635
由	-5636
男	-5637
留	-5638
略	-5639
疆	-5640
疼	-5641
痛	-5642
皮	-5643
益	-5644
盔	-5645
眼	-5646
瞒	-5647
矣	-5648
硬	-5649
示	-5650
禽	-5651
窝	-5652
站	-5653
章	-5654
算	-5655
精	-5656
繁	-5657
纳	-5658
纷	-5659
练	-5660
继	-5661
绩	-5662
缘	-5663
罔	-5664
罪	-5665
翼	-5666
耶	-5667
聋	-5668
聚	-5669
肘	-5670
肝	-5671
肥	-5672
胄	-5673
胜	-5674
臭	-5675
至	-5676
致	-5677
般	-5678
艺	-5679
花	-5680
若	-5681
茬	-5682
荆	-5683
荼	-5684
莽	-5685
萍	-5686
蒙	-5687
蓄	-5688
蔓	-5689
薄	-5690
虞	-5691
虽	-5692
表	-5693
衰	-5694
装	-5695
裹	-5696
觉	-5697
誓	-5698
记	-5699
讲	-5700
论	-5701
访	-5702
证	-5703
诈	-5704
诓	-5705
语	-5706
谈	-5707
谓	-5708
象	-5709
败	-5710
货	-5711
质	-5712
贫	-5713
赃	-5714
资	-5715
赐	-5716
赶	-5717
躲	-5718
轰	-5719
辱	-5720
迅	-5721
过	-5722
近	-5723
连	-5724
追	-5725
退	-5726
适	-5727
逃	-5728
速	-5729
逢	-5730
遇	-5731
遭	-5732
邑	-5733
酎	-5734
铤	-5735
铭	-5736
闪	-5737
问	-5738
闻	-5739
防	-5740
险	-5741
陷	-5742
集	-5743
雨	-5744
雪	-5745
震	-5746
露	-5747
霸	-5748
革	-5749
顺	-5750
须	-5751
顿	-5752
频	-5753
风	-5754
饮	-5755
驱	-5756
骂	-5757
骗	-5758
骨	-5759
鬻	-5760
鬼	-5761
鲁	-5762
鸟	-5763
鸾	-5764
黎	-5765
